{
    "version": "1.0",
    "truncation": null,
    "padding": null,
    "added_tokens": [
        {
            "id": 0,
            "special": true,
            "content": "<pad>",
            "single_word": false,
            "lstrip": false,
            "rstrip": false,
            "normalized": false
        },
        {
            "id": 1,
            "special": true,
            "content": "<unk>",
            "single_word": false,
            "lstrip": false,
            "rstrip": false,
            "normalized": false
        },
        {
            "id": 2,
            "special": true,
            "content": "[CLS]",
            "single_word": false,
            "lstrip": false,
            "rstrip": false,
            "normalized": false
        },
        {
            "id": 3,
            "special": true,
            "content": "[SEP]",
            "single_word": false,
            "lstrip": false,
            "rstrip": false,
            "normalized": false
        },
        {
            "id": 4,
            "special": true,
            "content": "[MASK]",
            "single_word": false,
            "lstrip": true,
            "rstrip": false,
            "normalized": true
        }
    ],
    "normalizer": {
        "type": "Sequence",
        "normalizers": [
            { "type": "Nmt" },
            { "type": "NFKC" },
            { "type": "Replace", "pattern": { "Regex": " {2,}" }, "content": " " },
            { "type": "Replace", "pattern": { "String": "৤" }, "content": "।" },
            { "type": "Replace", "pattern": { "String": "৥" }, "content": "॥" },
            { "type": "Replace", "pattern": { "String": "|" }, "content": "।" },
            { "type": "Replace", "pattern": { "String": "৷" }, "content": "।" },
            {
                "type": "Replace",
                "pattern": { "Regex": "(?<=[\\u0980-\\u09ff]):" },
                "content": "ঃ"
            },
            { "type": "Lowercase" }
        ]
    },
    "pre_tokenizer": {
        "type": "Sequence",
        "pretokenizers": [
            { "type": "Metaspace", "replacement": "▁", "add_prefix_space": true },
            { "type": "Digits", "individual_digits": true },
            { "type": "Punctuation" }
        ]
    },
    "post_processor": {
        "type": "TemplateProcessing",
        "single": [
            { "SpecialToken": { "id": "[CLS]", "type_id": 0 } },
            { "Sequence": { "id": "A", "type_id": 0 } },
            { "SpecialToken": { "id": "[SEP]", "type_id": 0 } }
        ],
        "pair": [
            { "SpecialToken": { "id": "[CLS]", "type_id": 0 } },
            { "Sequence": { "id": "A", "type_id": 0 } },
            { "SpecialToken": { "id": "[SEP]", "type_id": 0 } },
            { "Sequence": { "id": "B", "type_id": 1 } },
            { "SpecialToken": { "id": "[SEP]", "type_id": 1 } }
        ],
        "special_tokens": {
            "[CLS]": { "id": "[CLS]", "ids": [2], "tokens": ["[CLS]"] },
            "[SEP]": { "id": "[SEP]", "ids": [3], "tokens": ["[SEP]"] }
        }
    },
    "decoder": { "type": "Metaspace", "replacement": "▁", "add_prefix_space": true },
    "model": {
        "type": "Unigram",
        "unk_id": 1,
        "vocab": [
            ["<pad>", 0.0],
            ["<unk>", 0.0],
            ["[CLS]", 0.0],
            ["[SEP]", 0.0],
            ["[MASK]", 0.0],
            ["▁", -2.8645064216585467],
            ["।", -3.087467946113602],
            [",", -3.6611395187977607],
            ["র", -4.242415679063079],
            ["ের", -4.2675175667716605],
            ["ও", -4.457061714631299],
            [".", -4.7202630416512665],
            ["ে", -4.785215276305186],
            ["-", -4.896619106941813],
            ["১", -4.9466611553324],
            ["▁করে", -5.140031312813825],
            ["ই", -5.165580281674266],
            ["০", -5.204720216252312],
            ["২", -5.236982249988824],
            ["কে", -5.315987040088574],
            ["▁না", -5.341053428819599],
            ["▁থেকে", -5.486373376245005],
            ["▁এ", -5.520214176089352],
            [")", -5.535880549578767],
            ["(", -5.551149337557755],
            ["▁এই", -5.593055608622926],
            ["▁হয়", -5.635559356532218],
            ["▁করা", -5.647834062846963],
            ["▁এবং", -5.650089340765282],
            ["ন", -5.652673393427747],
            ["া", -5.663671180741433],
            ["’", -5.737316034134965],
            ["▁জন্য", -5.903398958500549],
            ["৫", -5.9133378954457125],
            ["৩", -5.936933637595791],
            ["▁হয়েছে", -5.942183355398132],
            ["‘", -5.947228848414449],
            ["▁হবে", -5.963540097855574],
            ["▁তিনি", -5.9648825298457595],
            ["▁তার", -5.972089160539705],
            ["টি", -6.0188423544555985],
            ["▁এক", -6.026691545726605],
            ["৪", -6.065741182001096],
            ["▁আর", -6.066342583358455],
            ["তে", -6.089225066738047],
            ["▁করতে", -6.096672757112067],
            ["▁একটি", -6.129275672286177],
            ["▁নিয়ে", -6.132191070990968],
            ["৯", -6.1590704925620905],
            ["▁যে", -6.200198089773531],
            ["স", -6.246714711860889],
            ["৮", -6.250046017540317],
            ["৭", -6.258940028977088],
            ["৬", -6.2653881470399515],
            ["▁এর", -6.27793447605943],
            ["ক", -6.294672455370341],
            ["▁বলেন", -6.295950958508145],
            ["ি", -6.3057692606709494],
            ["য়", -6.331812595344035],
            ["▁হয়ে", -6.3336738786232925],
            ["▁করেন", -6.3715218797216355],
            ["▁বা", -6.446325846335332],
            ["ম", -6.459893090615255],
            ["▁মধ্যে", -6.4789283551087795],
            ["▁তাদের", -6.49779942386162],
            ["▁পর", -6.505069425438844],
            ["▁দিয়ে", -6.518148202159779],
            ["▁যায়", -6.520923122607552],
            ["▁সময়", -6.522127440276229],
            ["▁বলে", -6.52345617166611],
            ["ত", -6.544157015449345],
            ["▁কিন্তু", -6.567824880149587],
            ["▁সঙ্গে", -6.569800035716447],
            [":", -6.589495752065966],
            ["▁কথা", -6.593013786905864],
            ["▁আমি", -6.609689101802397],
            ["▁তা", -6.633273075765228],
            ["?", -6.654901289094992],
            ["ল", -6.675067198248639],
            ["▁সে", -6.7080529741387735],
            ["▁আমার", -6.709052682383245],
            ["দের", -6.733472186840647],
            ["টা", -6.734840962822801],
            ["ী", -6.747320521512117],
            ["▁তারা", -6.7645795396892545],
            ["▁আমাদের", -6.7914490728943395],
            ["▁করার", -6.792716074673137],
            ["▁ছিল", -6.801289327276251],
            ["ঃ", -6.8032941595104095],
            ["▁তবে", -6.807587173330184],
            ["▁আমরা", -6.830262320966963],
            ["▁করেছে", -6.857454039657256],
            ["▁সেই", -6.866043986393455],
            ["▁কিছু", -6.866102635853279],
            ["▁হচ্ছে", -6.866386899016593],
            ["▁সাথে", -6.896085586024995],
            ["▁কোন", -6.907039969693111],
            ["▁শুরু", -6.91383923016595],
            ["▁কোনো", -6.917460369682836],
            ["▁কাজ", -6.918415531320896],
            ["সহ", -6.919819648323287],
            ["▁বাংলাদেশ", -6.922478754712525],
            ["▁টাকা", -6.935531206678155],
            ["▁আছে", -6.93656471464616],
            ["▁অনেক", -6.947234160943223],
            ["▁পারে", -6.952853328359376],
            ["ব", -6.9727604310038025],
            ["▁সব", -6.981507763650544],
            ["!", -6.984381312187878],
            ["▁রয়েছে", -6.9881962758467875],
            ["▁বিভিন্ন", -6.990926660789285],
            ["ো", -6.998070401080808],
            ["▁কি", -7.000875017572421],
            ["এ", -7.016134099603519],
            ["▁হতে", -7.023220300771522],
            ["▁নয়", -7.033941096928684],
            ["▁করেছেন", -7.039707568687767],
            ["▁হিসেবে", -7.04420537858295],
            ["0", -7.080648802401161],
            ["▁হাজার", -7.08301505601343],
            ["▁পুলিশ", -7.088572484276337],
            ["/", -7.093435516464149],
            ["▁কাছে", -7.094016844241482],
            ["▁বছর", -7.095245808645245],
            ["▁আগে", -7.101066672241348],
            ["▁নেই", -7.108029422020506],
            ["▁একটা", -7.125015590011996],
            ["▁মনে", -7.128012344771577],
            ["▁জানান", -7.144567555740906],
            ["1", -7.152120663077529],
            ["▁দিন", -7.154104219834666],
            ["▁এখন", -7.1665512774449365],
            ["▁বড়", -7.183073030429796],
            ["▁দুই", -7.184192433353234],
            ["▁নতুন", -7.19325998577863],
            ["শ", -7.199920041546227],
            ["▁দেখা", -7.210645471687371],
            ["▁ইসলাম", -7.212101108948904],
            ["▁যা", -7.213817874488294],
            ["▁তাই", -7.214915422076924],
            ["▁ওই", -7.216762880338845],
            ["▁গত", -7.226226557738244],
            ["ট", -7.227582573002195],
            ["না", -7.228635094033645],
            ["▁প্রথম", -7.234549647336841],
            ["▁আজ", -7.244304923402879],
            ["▁গেছে", -7.245727709741715],
            ["▁জেলা", -7.25314180475528],
            ["▁বেশি", -7.256723936443926],
            ["▁দেশের", -7.257525541475086],
            ["▁জাতীয়", -7.259388409188277],
            ["▁থাকে", -7.260268317414845],
            ["▁ছিলেন", -7.264138124230405],
            ["▁সম্পাদক", -7.280728588493782],
            ["▁তাঁর", -7.28326304047631],
            ["ড", -7.291636439635299],
            ["▁প্রধান", -7.296102417235181],
            ["▁পর্যন্ত", -7.304770968297994],
            ["▁এমন", -7.3056331869333935],
            ["▁আপনার", -7.309438056311135],
            ["হ", -7.310055555115509],
            ["▁দিকে", -7.319252040635995],
            ["▁তাকে", -7.31995909991657],
            ["▁শেষ", -7.325991095859935],
            ["▁রহমান", -7.338635711022786],
            ["জ", -7.34352288633667],
            ["▁যদি", -7.3487455364818],
            ["▁মাধ্যমে", -7.356060534947487],
            ["2", -7.368523984424442],
            ["নি", -7.375317584582641],
            ["▁জন", -7.378800714207518],
            ["▁প্রতি", -7.383338123587144],
            ["▁মতো", -7.3841617910450275],
            ["'", -7.386660204416392],
            ["▁দিতে", -7.388192213181744],
            ["▁সরকার", -7.38922546495491],
            ["▁উপজেলা", -7.394286651876895],
            ["▁হলে", -7.395529128433701],
            ["▁তো", -7.418134700673436],
            ["▁ঢাকা", -7.42085550559861],
            ["▁পরে", -7.421090812696825],
            ["▁হোসেন", -7.424127903045189],
            ["▁মানুষ", -7.432647139489941],
            ["▁নাম", -7.440052164395976],
            ["▁সভাপতি", -7.451913923362394],
            ["▁তখন", -7.454062086970376],
            ["▁সাধারণ", -7.456651781245801],
            ["▁ধরে", -7.457584863949833],
            ["তা", -7.460038668083907],
            ["▁প্রায়", -7.465258365469728],
            ["▁আপনি", -7.487385626992077],
            ["”", -7.490739968931392],
            ["▁সালে", -7.492386863107098],
            ["▁একজন", -7.496586876468312],
            ["▁জানা", -7.506406987903379],
            ["“", -7.510342795959144],
            ["▁শেখ", -7.5133650891503],
            ["▁ব্যবহার", -7.518538709811267],
            ["▁বাংলাদেশের", -7.530717517137616],
            ["▁বিরুদ্ধে", -7.538841513467464],
            ["▁যাবে", -7.54362859784273],
            ["ু", -7.547888876857213],
            ["▁আওয়ামী", -7.550035398158336],
            ["গুলো", -7.551097239648385],
            ["ভাবে", -7.5551905137657425],
            ["▁তথ্য", -7.556374340902719],
            ["প", -7.569317211051208],
            ["▁করছে", -7.579614691162632],
            ["▁ভালো", -7.588699375721125],
            ["▁মো", -7.589599355257256],
            ["▁দেওয়া", -7.593317745214216],
            ["▁আবার", -7.597068502843859],
            ["▁কারণে", -7.602276545237887],
            ["▁সদস্য", -7.610448205830325],
            ["▁দেয়া", -7.612715167122719],
            ["▁বলা", -7.613263871167261],
            ["▁মানুষের", -7.620330459150928],
            ["▁কারণ", -7.627125750893912],
            ["▁উপজেলার", -7.628003030961278],
            ["–", -7.634481363317899],
            ["s", -7.635298608938744],
            ["▁হলো", -7.639221973872232],
            ["▁এটা", -7.642983988027808],
            ["দ", -7.644571941500123],
            ["▁তৈরি", -7.6458656199134065],
            ["▁বিশেষ", -7.647630540852726],
            ["▁আরো", -7.652917207099966],
            ["▁অভিযোগ", -7.655919818159015],
            ["▁কেউ", -7.664736832689906],
            ["▁পড়ে", -7.671419294429896],
            ["▁নির্বাচন", -7.675010940693337],
            ["্", -7.678319621958199],
            ["▁বিষয়ে", -7.686203152793778],
            ["▁পাওয়া", -7.688455326639705],
            ["▁খুব", -7.688811069932399],
            ["▁মা", -7.689517510245414],
            ["▁আরও", -7.695964652899434],
            [";", -7.696561483492895],
            ["▁দু", -7.712362106888408],
            ["▁দল", -7.713915581165939],
            ["▁নিজের", -7.72484654596693],
            ["▁লাখ", -7.730190836862528],
            ["▁প্রধানমন্ত্রী", -7.730662761376436],
            ["▁যখন", -7.730853873411977],
            ["▁দলের", -7.733314682400531],
            ["▁এসব", -7.738125943589948],
            ["▁গিয়ে", -7.742725472697623],
            ["▁দেয়", -7.75228665756652],
            ["▁তিন", -7.75593011507042],
            ["▁অ", -7.756245721703317],
            ["▁কোটি", -7.756532971706571],
            ["▁অন্য", -7.762731721907697],
            ["▁সেখানে", -7.765141660766739],
            ["▁অনুষ্ঠিত", -7.766085216495579],
            ["▁দেন", -7.767492611964787],
            ["▁দেশে", -7.769244861580841],
            ["ছে", -7.769662129995488],
            ["গ", -7.7696840558758655],
            ["▁নামে", -7.78189520449839],
            ["▁করবে", -7.783749156157976],
            ["▁ফলে", -7.790996679796551],
            ["▁সালের", -7.800851760519707],
            ["▁প্রকাশ", -7.801031768204391],
            ["▁উপর", -7.801907717587147],
            ["▁হল", -7.805549048188915],
            ["▁এতে", -7.813682277767887],
            ["▁বেশ", -7.814210222948002],
            ["▁পারেন", -7.817070357084281],
            ["▁শুধু", -7.82295362000429],
            ["▁সামনে", -7.825815741985547],
            ["▁ওপর", -7.827487544138913],
            ["▁শিক্ষা", -7.829242124376561],
            ["▁হওয়ার", -7.830527062017021],
            ["▁অংশ", -7.830844583930986],
            ["বি", -7.830935778847479],
            ["▁আ", -7.836883698244025],
            ["▁এটি", -7.838103415629583],
            ["▁কী", -7.838202489675595],
            ["▁সরকারের", -7.839312083609842],
            ["\"", -7.841986822713531],
            ["টার", -7.843976421074139],
            ["▁চেয়ারম্যান", -7.845975930839849],
            ["▁বলেছেন", -7.846185555959854],
            ["▁একই", -7.848406486028461],
            ["▁ঘটনা", -7.850214319409304],
            ["▁বছরের", -7.853088148016152],
            ["▁এবার", -7.854422389764165],
            ["▁কম", -7.857341854636848],
            ["▁তাহলে", -7.857952564089421],
            ["▁চলে", -7.861965418459702],
            ["▁দেশ", -7.8818038733682],
            ["▁দাবি", -7.882122328879399],
            ["▁চেষ্টা", -7.886587536679899],
            ["▁খান", -7.8985134948995235],
            ["▁যাচ্ছে", -7.898612061545789],
            ["▁যেতে", -7.898782801358861],
            ["▁নেতা", -7.900434291341833],
            ["▁করি", -7.901484248365948],
            ["▁উপস্থিত", -7.903862472691538],
            ["▁আগামী", -7.9057587991763825],
            ["▁বিএনপি", -7.91127641408057],
            ["▁এলাকায়", -7.911642002714864],
            ["▁কর্মকর্তা", -7.912577630767528],
            ["▁ধরনের", -7.916670194821116],
            ["▁হক", -7.918881334888676],
            ["▁যেন", -7.927582984526742],
            ["▁হাতে", -7.92980272008155],
            ["লে", -7.934951944662727],
            ["▁বন্ধ", -7.938970447969975],
            ["▁তুলে", -7.940946258928431],
            ["পুর", -7.9426263684533165],
            ["▁চৌধুরী", -7.944703987262386],
            ["▁খবর", -7.947366577318517],
            ["চ", -7.950164821163495],
            ["▁ব্যবস্থা", -7.95157663060794],
            ["▁নিতে", -7.9517901799376975],
            ["▁ঘোষণা", -7.960600462707656],
            ["▁এখানে", -7.966136754061635],
            ["▁ছাড়া", -7.966304139519876],
            ["▁যারা", -7.966850148512426],
            ["▁আলী", -7.975595006786376],
            ["▁ঠিক", -7.976676701281802],
            ["▁মোঃ", -7.980755113157356],
            ["▁সংবাদ", -7.981064930566465],
            ["▁ছেলে", -7.981678498422802],
            ["ফ", -7.987669601580853],
            ["▁সাবেক", -7.991060524766871],
            ["▁সুযোগ", -7.996554260709281],
            ["▁ক্ষেত্রে", -7.996867606544228],
            ["▁মত", -8.001401624553116],
            ["▁নিহত", -8.002218575935924],
            ["▁সকল", -8.00725310845862],
            ["▁এসে", -8.010609896028907],
            ["▁থাকা", -8.01265800852218],
            ["▁স্থানীয়", -8.015592775992879],
            ["▁বাংলা", -8.024406460892697],
            ["▁করুন", -8.02730837778681],
            ["▁দেখে", -8.033216512811897],
            ["▁করছেন", -8.037125784360914],
            ["▁ছবি", -8.037325260851283],
            ["▁কেন", -8.044089793141918],
            ["[", -8.052115732454427],
            ["]", -8.05475399387036],
            ["▁লীগের", -8.06258611848121],
            ["▁বিএনপির", -8.06391576266126],
            ["▁নারী", -8.065721944315525],
            ["4", -8.068448911742896],
            ["▁সেটা", -8.072096018834726],
            ["▁সকাল", -8.073893039566833],
            ["▁উদ্ধার", -8.075585205380838],
            ["▁গ্রামের", -8.078988345317104],
            ["▁দিয়েছে", -8.079492988022913],
            ["▁বি", -8.080927040978835],
            ["▁সহ", -8.081194599513225],
            ["▁সরকারি", -8.081293194096421],
            ["▁আল", -8.084121224716352],
            ["▁দেখতে", -8.088757089227364],
            ["▁করবেন", -8.090207619971542],
            ["ং", -8.093563231969254],
            ["িং", -8.09469706870603],
            ["3", -8.094771761121129],
            ["▁হন", -8.098932600510857],
            ["▁মাঝে", -8.099636372754341],
            ["▁হয়েছিল", -8.099942544356646],
            ["▁নানা", -8.107538301188713],
            ["▁মামলা", -8.107583502953844],
            ["টায়", -8.108635109368393],
            ["▁এম", -8.113594213375706],
            ["▁শতাংশ", -8.114439538372311],
            ["▁উত্তর", -8.120800976775824],
            ["▁রেখে", -8.124389007391263],
            ["▁সময়ে", -8.126717189200317],
            ["▁হাত", -8.127922710411653],
            ["▁সদর", -8.128387069350621],
            ["▁অর্থ", -8.132102706351299],
            ["▁এরপর", -8.13421457911635],
            ["▁আলোচনা", -8.137723550919695],
            ["▁সম্পর্কে", -8.138778061654067],
            ["▁নিশ্চিত", -8.139952460333726],
            ["▁ছোট", -8.143303513764275],
            ["▁যেমন", -8.144926687889962],
            ["▁হয়নি", -8.146324544828964],
            ["লা", -8.147124465984131],
            ["▁রাতে", -8.149341769134304],
            ["▁থাকবে", -8.151814590680013],
            ["▁বিষয়টি", -8.152688010200942],
            ["▁রাজনৈতিক", -8.152893004621387],
            ["▁করলে", -8.15507062406464],
            ["▁দিয়েছেন", -8.162408466230936],
            ["▁জানিয়েছেন", -8.163787435571395],
            ["▁বৃহস্পতিবার", -8.169067216173614],
            ["▁উদ্দিন", -8.171269331564755],
            ["▁বক্তব্য", -8.171270975687213],
            ["▁আন্তর্জাতিক", -8.172212595934674],
            ["▁বুধবার", -8.178356784370052],
            ["ভ", -8.181447619908594],
            ["▁যার", -8.182992715276834],
            ["▁সোমবার", -8.183943633295925],
            ["▁সবচেয়ে", -8.187114985947463],
            ["▁শেষে", -8.187159805329092],
            ["8", -8.18820608849723],
            ["▁আলম", -8.190033602216854],
            ["▁হওয়া", -8.19322909201269],
            ["▁বলতে", -8.193429269908986],
            ["বে", -8.194192725624568],
            ["আ", -8.196685854483537],
            ["▁চার", -8.197085669834502],
            ["▁গতকাল", -8.197787484357185],
            ["▁আমাকে", -8.198363162946045],
            ["▁আইন", -8.20326225509143],
            ["▁আটক", -8.20724288441174],
            ["▁মঙ্গলবার", -8.20926690536287],
            ["5", -8.210322864808498],
            ["▁গ্রহণ", -8.211771229221162],
            ["▁সমস্যা", -8.211902212406091],
            ["▁জীবন", -8.21250557812231],
            ["▁থেকেই", -8.213918098752066],
            ["▁নি", -8.216027740186469],
            ["▁গেলে", -8.216279521080214],
            ["▁অনুষ্ঠানে", -8.219454382337009],
            ["▁পাশাপাশি", -8.219806745260316],
            ["▁নির্বাচনে", -8.219911339969478],
            ["মা", -8.224785424351618],
            ["▁কলেজ", -8.230363228381764],
            ["সি", -8.230603831592244],
            ["▁আসে", -8.23353701925333],
            ["▁সকালে", -8.234039366389712],
            ["▁একটু", -8.234455813470177],
            ["লো", -8.24024489836539],
            ["▁ভারতের", -8.240345128644117],
            ["▁বিষয়", -8.243658921741048],
            ["▁রাখা", -8.24514051712086],
            ["▁রাত", -8.24541942129995],
            ["▁পানি", -8.246123496309012],
            ["▁দ্বিতীয়", -8.248597390289525],
            ["▁শনিবার", -8.252262524633199],
            ["▁এলাকার", -8.255811157861427],
            ["উ", -8.257048078721029],
            ["▁বের", -8.258261293636565],
            ["▁হয়েছেন", -8.25962619195138],
            ["ুল", -8.261066185337606],
            ["▁উন্নয়ন", -8.262703486452796],
            ["▁মোহাম্মদ", -8.2694921505854],
            ["▁সিদ্ধান্ত", -8.269511646236722],
            ["▁সম্ভব", -8.269668018055908],
            ["▁যান", -8.274130200173992],
            ["▁শিক্ষক", -8.275837924331856],
            ["▁হলেও", -8.276820411894676],
            ["▁সংসদ", -8.280372237767036],
            ["▁পুলিশের", -8.281485631553966],
            ["▁দায়িত্ব", -8.28432446745113],
            ["▁খালেদা", -8.287808256073932],
            ["▁মে", -8.288051898633162],
            ["▁পালন", -8.29091653531375],
            ["▁চেয়ে", -8.291265245808646],
            ["▁শুক্রবার", -8.292675388544982],
            ["▁আহমেদ", -8.292866748765466],
            ["▁গেল", -8.29527018682743],
            ["▁মাত্র", -8.29540360485316],
            ["▁ভাল", -8.296059682812329],
            ["▁কাজে", -8.299679882347101],
            ["টির", -8.299784441226754],
            ["▁লীগ", -8.300813990356428],
            ["▁বিশ্ববিদ্যালয়", -8.306016826616524],
            ["▁সৃষ্টি", -8.309411570563723],
            ["▁অন্যান্য", -8.309983552280533],
            ["▁পেয়ে", -8.310392218289834],
            ["▁বাড়ি", -8.31044323212016],
            ["▁কমিটির", -8.310959794124276],
            ["য়ে", -8.311444861843906],
            ["▁প্রদান", -8.311490548353111],
            ["▁সবাই", -8.317056810166022],
            ["বার", -8.318006869954033],
            ["▁ব্যাপারে", -8.318804519700532],
            ["6", -8.321623628326247],
            ["বা", -8.323199547029347],
            ["▁হাসপাতালে", -8.324383543667377],
            ["▁পা", -8.326793622451417],
            ["ছ", -8.33685118160799],
            ["▁অনুযায়ী", -8.33692180368267],
            ["্য", -8.337545363008063],
            ["খ", -8.337880335162453],
            ["▁আহত", -8.339477978668745],
            ["▁প্রশ্ন", -8.341192044624188],
            ["▁রাখতে", -8.341609888517588],
            ["▁দুটি", -8.343493876982626],
            ["▁বসে", -8.34405701990146],
            ["লি", -8.344752969401295],
            ["▁চাই", -8.346127671325673],
            ["ছেন", -8.346880466038604],
            ["▁প্রতিনিধি", -8.34792143789426],
            ["▁বাংলাদেশে", -8.350042531101797],
            ["▁কোনও", -8.35213501263104],
            ["▁দক্ষিণ", -8.353827103487736],
            ["▁ছাত্র", -8.355631290159403],
            ["▁ঘটে", -8.358285421378472],
            ["▁প্রয়োজন", -8.359411077784216],
            ["▁থাকতে", -8.359528764642873],
            ["▁এগিয়ে", -8.359627599299255],
            ["▁চলছে", -8.359722456393968],
            ["▁ফিরে", -8.36247777926755],
            ["▁ইউনিয়নের", -8.36269420982644],
            ["▁থানার", -8.363531363460234],
            ["▁যাওয়ার", -8.363812272219564],
            ["▁শিশু", -8.364567679716385],
            ["▁কেন্দ্রীয়", -8.365450180507906],
            ["7", -8.366659366965541],
            ["▁পরীক্ষা", -8.372659455243465],
            ["িত", -8.373756166946933],
            ["▁হত্যা", -8.37391384440143],
            ["▁ঘটনায়", -8.375310169317697],
            ["▁তারপর", -8.377232924963549],
            ["▁চট্টগ্রাম", -8.383083922625636],
            ["▁মাস", -8.386252400529715],
            ["▁বর্তমান", -8.386305481475418],
            ["▁যাওয়া", -8.389722540832551],
            ["▁কিংবা", -8.395592488870513],
            ["▁সংখ্যা", -8.39603408264272],
            ["▁শেয়ার", -8.397894532988522],
            ["▁হাসিনা", -8.399344897044465],
            ["▁ব্যাংক", -8.403365041333865],
            ["▁অব", -8.406762741858977],
            ["▁অবস্থান", -8.407691091279705],
            ["9", -8.409937968379193],
            ["▁বিভাগের", -8.410039759618632],
            ["ঁ", -8.410307562567136],
            ["জি", -8.410463826407831],
            ["▁হাসান", -8.412026744465285],
            ["কার", -8.412324244065575],
            ["▁এছাড়া", -8.413233913117601],
            ["▁উচ্চ", -8.420432306328443],
            ["▁সভায়", -8.422514547143203],
            ["▁ভাই", -8.424556607584554],
            ["▁জানতে", -8.424706676055813],
            ["▁বাবা", -8.430090273845533],
            ["▁অবস্থায়", -8.43314514206324],
            ["তার", -8.43582805055386],
            ["▁সু", -8.435942168096544],
            ["▁বেগম", -8.438695735282087],
            ["▁পরিচালক", -8.439376523678158],
            ["▁গড়ে", -8.446046389857482],
            ["কি", -8.450858549862334],
            ["▁বর্তমানে", -8.455229281727721],
            ["▁পরিবারের", -8.459400615173223],
            ["▁খাবার", -8.460028882685124],
            ["▁আব্দুল", -8.464778877439011],
            ["▁ব্যক্তি", -8.46776501678554],
            ["▁উঠে", -8.468004211035515],
            ["িয়া", -8.471214046059197],
            ["▁পারবেন", -8.472674424767874],
            ["▁ভারত", -8.472936956970415],
            ["▁বাইরে", -8.47496338039637],
            ["▁জেলার", -8.474976494086288],
            ["▁মিয়া", -8.47585189269136],
            ["com", -8.477820641527085],
            ["▁উপ", -8.479125094897178],
            ["▁সি", -8.479589115769084],
            ["▁সাড়ে", -8.479901100848215],
            ["ণ", -8.480398466782129],
            ["দা", -8.483170955621643],
            ["—", -8.483572204235466],
            ["▁লেখা", -8.484411711475893],
            ["জন", -8.487376635590227],
            ["▁পাঁচ", -8.489692865640157],
            ["▁আহমদ", -8.493575203313092],
            ["▁নভেম্বর", -8.493657165274541],
            ["▁আশা", -8.494753629573296],
            ["▁রায়", -8.496400458783446],
            ["▁নিজেদের", -8.504299863376534],
            ["▁কয়েক", -8.504627080703147],
            ["▁অভিযান", -8.505239936753942],
            ["▁কমিশন", -8.506680291514817],
            ["e", -8.509550857634945],
            ["▁বিশ্বাস", -8.509555297767925],
            ["▁ইউনিয়ন", -8.512015411528973],
            ["▁নিউজ", -8.512267959779235],
            ["▁মূল", -8.515716162384225],
            ["▁দিনের", -8.518620786126213],
            ["▁সড়ক", -8.519625928642315],
            ["▁আদালত", -8.520251896188823],
            ["▁যোগ", -8.522392602588205],
            ["▁ভর্তি", -8.52250086195939],
            ["▁ভাবে", -8.524928199055442],
            ["তো", -8.52655450819332],
            ["▁মৃত্যু", -8.528101349462727],
            ["▁সিলেট", -8.530738813644362],
            ["▁পক্ষে", -8.53119826728111],
            ["▁লোক", -8.53279738131006],
            ["▁স্কুল", -8.534259371001353],
            ["▁ডেস্ক", -8.541473479055494],
            ["▁বঙ্গবন্ধু", -8.543692173568541],
            ["▁আয়োজন", -8.543833568435401],
            ["▁উল্লেখ", -8.548298367594759],
            ["য", -8.551748565369916],
            ["▁নেওয়া", -8.55260927242501],
            ["▁নির্বাহী", -8.553297963943132],
            ["▁অথবা", -8.553447243495897],
            ["▁সভা", -8.553707317336677],
            ["▁ওয়া", -8.555536435332064],
            ["▁এসেছে", -8.558899443784576],
            ["▁পাশে", -8.560005795697666],
            ["▁যোগাযোগ", -8.560463888482463],
            ["▁গ্রেফতার", -8.56059076697013],
            ["▁ভোট", -8.5610598982485],
            ["▁প্রাথমিক", -8.561966066092205],
            ["▁বই", -8.562235056183567],
            ["▁স্ত্রী", -8.563357925221263],
            ["▁তাতে", -8.563687334654055],
            ["▁পক্ষ", -8.56446511061996],
            ["▁সারা", -8.565800615126667],
            ["▁আবেদন", -8.566208669642197],
            ["▁মুখে", -8.567196289155794],
            ["▁এত", -8.569726714523652],
            ["থ", -8.570678785743004],
            ["▁জয়", -8.571343729388003],
            ["▁নেয়া", -8.573060155736371],
            ["▁বিশ্ব", -8.57520104018342],
            ["▁সামাজিক", -8.576846835470057],
            ["▁মেয়ে", -8.579014388822673],
            ["▁হিসাবে", -8.580292228316456],
            ["▁পথে", -8.581309681419505],
            ["▁বার", -8.582810518860336],
            ["▁নিরাপত্তা", -8.583757772384319],
            ["▁প্রতিষ্ঠান", -8.584684461689054],
            ["▁রাখেন", -8.585447952806556],
            ["▁বিস্তারিত", -8.586568966567286],
            ["▁গুরুত্বপূর্ণ", -8.587313169525938],
            ["▁কেন্দ্র", -8.588513862857283],
            ["▁বাস", -8.589440886547546],
            ["▁মুখ", -8.590688931087161],
            ["▁বাড়িতে", -8.59081293690159],
            ["▁ডেস্কঃ", -8.591260519484466],
            ["▁মার্কিন", -8.593130874678447],
            ["▁দ্রুত", -8.59440843144814],
            ["▁আসা", -8.595272049833921],
            ["▁মাসে", -8.596068983128795],
            ["▁প্রেসিডেন্ট", -8.596777959714776],
            ["▁স্বাস্থ্য", -8.599294357140268],
            ["▁সবার", -8.602657593314275],
            ["▁জন্ম", -8.603832014506144],
            ["▁অতিথি", -8.60472212865504],
            ["▁এদিকে", -8.605646676381292],
            ["▁ভুল", -8.607170928293181],
            ["▁অক্টোবর", -8.6071940587079],
            ["▁সিটি", -8.608660358104542],
            ["▁মোট", -8.60877857354],
            ["▁যেখানে", -8.610402909260932],
            ["▁জানায়", -8.616530615783578],
            ["▁অতিরিক্ত", -8.622215993923984],
            ["▁অন্যতম", -8.627283201076942],
            ["▁দাম", -8.62802581697792],
            ["▁ছেড়ে", -8.634353472944712],
            ["▁পরিবর্তন", -8.63448773100048],
            ["▁থাকার", -8.636318956857561],
            ["▁মাঠে", -8.637488498104144],
            ["▁দিনে", -8.637577450776202],
            ["▁সাংবাদিক", -8.638535169749002],
            ["▁মন", -8.640745446998736],
            ["▁মধ্য", -8.641136598383627],
            ["▁বাজার", -8.643385046434561],
            ["▁চান", -8.64606187734355],
            ["▁থাকলে", -8.646441511315587],
            ["▁জুলাই", -8.647226188662852],
            ["▁ভিডিও", -8.64767625498738],
            ["▁বিক্রি", -8.649178203239117],
            ["▁সেপ্টেম্বর", -8.649182718623145],
            ["▁ডি", -8.649656579545836],
            ["▁মোবাইল", -8.650122694675431],
            ["▁আবু", -8.65319290674502],
            ["▁পায়", -8.653221124897543],
            ["▁নিজ", -8.653758989686885],
            ["▁আসলে", -8.654108728741527],
            ["▁বিশ্বের", -8.656633205799244],
            ["▁দেওয়ার", -8.657277529959496],
            ["▁পরিবার", -8.658050094097858],
            ["▁মন্তব্য", -8.660546052359281],
            ["▁মারা", -8.660674737845252],
            ["▁কাছ", -8.661242521959736],
            ["▁শহরের", -8.664041108831357],
            ["▁পণ্য", -8.665610507958322],
            ["▁কমিটি", -8.666121267141081],
            ["▁মাদক", -8.666603585884578],
            ["▁প্র", -8.668810596798659],
            ["▁দুপুরে", -8.668845772179347],
            ["▁আল্লাহ", -8.670905044732805],
            ["▁অধ্যাপক", -8.672046360289437],
            ["কারী", -8.673802163072343],
            ["▁সেবা", -8.67486173695384],
            ["▁প্রার্থী", -8.675291004484945],
            ["▁ফোন", -8.67578134144395],
            ["▁বিয়ে", -8.676178646981176],
            ["▁ভারতীয়", -8.67645143192982],
            ["▁ঘটনার", -8.676663145907238],
            ["▁এলাকা", -8.677162479058081],
            ["▁আছেন", -8.67743974266524],
            ["▁কক্সবাজার", -8.678559485183765],
            ["▁খেলা", -8.678750811958993],
            ["▁থাকেন", -8.678985217927565],
            ["▁পথ", -8.679183187321494],
            ["▁জানিয়েছে", -8.67921769385155],
            ["লেন", -8.679831724723398],
            ["তি", -8.680508860486764],
            ["▁পেতে", -8.681473583777564],
            ["▁নম্বর", -8.682581319396173],
            ["▁চা", -8.685223092620127],
            ["▁করছি", -8.686710943278188],
            ["▁জুন", -8.688253846724965],
            ["▁পান", -8.68907919341305],
            ["▁যাতে", -8.68965936152696],
            ["t", -8.690384302090175],
            ["▁মার্চ", -8.690965741535159],
            ["▁নিয়োগ", -8.695411056007762],
            ["▁চালিয়ে", -8.69605764739732],
            ["য়া", -8.699965981351697],
            ["▁সম্পর্ক", -8.700057623312512],
            ["▁চায়", -8.701095036606697],
            ["▁পরিষদের", -8.702862985816054],
            ["▁জিয়া", -8.703312246970512],
            ["▁টাকার", -8.703340137874305],
            ["▁উপলক্ষে", -8.70456448874399],
            ["ছি", -8.705609597743736],
            ["▁গান", -8.705715704591663],
            ["▁ঘরে", -8.706028941422172],
            ["▁বৃদ্ধি", -8.707330533878022],
            ["▁অফিসার", -8.70802652734597],
            ["▁আগস্ট", -8.708783445761012],
            ["▁বিচার", -8.709336449959629],
            ["▁মামলায়", -8.710735185210293],
            ["অ", -8.713023730011084],
            ["মি", -8.713718057137166],
            ["▁ম্যাচে", -8.713979849014823],
            ["▁অবস্থা", -8.714506985398211],
            ["▁রাজধানীর", -8.715334646330044],
            ["▁সূত্রে", -8.717366228233658],
            ["▁বললেন", -8.717369765971766],
            ["▁আগের", -8.717625710345446],
            ["গুলোর", -8.718014773447361],
            ["▁করেছিলেন", -8.718849610545528],
            ["▁হয়তো", -8.720500181435433],
            ["▁পরিচালনা", -8.723126056669289],
            ["▁মুক্তি", -8.725761472773401],
            ["▁মেয়র", -8.72952185403371],
            ["▁নির্দেশ", -8.73055916501351],
            ["▁নামের", -8.730968594601311],
            ["▁কত", -8.731769880395873],
            ["ছিলেন", -8.7340146959991],
            ["▁কর", -8.734400211094528],
            ["▁রোববার", -8.735319121781457],
            ["▁জানানো", -8.736431797681398],
            ["▁মুসলিম", -8.737375180067042],
            ["▁অধিকার", -8.738541166124996],
            ["▁সম্প্রতি", -8.739956804953017],
            ["▁পূর্ব", -8.74012682484361],
            ["▁তাঁদের", -8.740183281353342],
            ["▁গাড়ি", -8.740835873748415],
            ["▁মন্ত্রী", -8.741012639174755],
            ["▁লক্ষ্য", -8.741118303311932],
            ["▁সংস্থা", -8.741119147610394],
            ["▁বাজারে", -8.741572822848964],
            ["▁করেছি", -8.741605912857683],
            ["▁এস", -8.741625159267914],
            ["ুর", -8.74278533590477],
            ["▁ঐ", -8.743549413341041],
            ["▁নিজস্ব", -8.746775259552484],
            ["▁গঠন", -8.748962469773714],
            ["সে", -8.74915168922959],
            ["▁মামলার", -8.749916571451989],
            ["▁প্রতিটি", -8.750819717606532],
            ["▁দেয়ার", -8.751645933062832],
            ["▁হোক", -8.75826558967743],
            ["▁ধারণা", -8.75924015849186],
            ["▁আন্দোলন", -8.759299953975074],
            ["▁নাই", -8.76077948197745],
            ["▁ধরা", -8.76233945796759],
            ["▁কখনো", -8.76264444129231],
            ["▁মহিলা", -8.763911172289411],
            ["▁লাভ", -8.764888523983652],
            ["▁ভূমিকা", -8.765302681769517],
            ["▁তাঁকে", -8.768204758924426],
            ["▁এখনো", -8.77052002107351],
            ["▁পুরো", -8.77062163842142],
            ["▁ফেলে", -8.77109805024574],
            ["▁পারি", -8.772174609758368],
            ["▁স্থানে", -8.776342879772924],
            ["▁আবুল", -8.776622559902924],
            ["ডি", -8.77670778465303],
            ["▁পরিমাণ", -8.776707964280538],
            ["▁আসছে", -8.77876008415705],
            ["▁সচিব", -8.77947738896221],
            ["▁তুমি", -8.781013899981136],
            ["▁আপনাকে", -8.781310616819594],
            ["▁উচিত", -8.781501678150828],
            ["▁নেয়", -8.78219177414368],
            ["▁থানায়", -8.78467199951402],
            ["▁তদন্ত", -8.791484703492392],
            ["বিশ্ববিদ্যালয়ের", -8.791500355149841],
            ["▁পরিকল্পনা", -8.79178419358344],
            ["▁আসতে", -8.792450280726925],
            ["▁গল্প", -8.794267784331229],
            ["▁চিকিৎসা", -8.794754760022844],
            ["▁ভাগ", -8.795416344585005],
            ["▁নির্বাচনের", -8.79599155137461],
            ["▁ইত্যাদি", -8.798201525665243],
            ["▁ফল", -8.798586266478214],
            ["▁জানিয়ে", -8.79913288965803],
            ["▁থানা", -8.802189436930126],
            ["▁ধর্ম", -8.802288545796277],
            ["▁প্রযুক্তি", -8.809452031324488],
            ["গুলি", -8.81095684726715],
            ["▁আদালতে", -8.811152256693449],
            ["▁অনলাইন", -8.811594364760014],
            ["▁ম্যাচ", -8.811779799530035],
            ["▁করলেন", -8.812187514197513],
            ["▁হামলা", -8.81291461112478],
            ["▁হার", -8.8134469617847],
            ["▁পর্যায়ে", -8.813512307647745],
            ["▁the", -8.813783268591932],
            ["▁সাহায্য", -8.81438810550448],
            ["▁আগেই", -8.814634347940414],
            ["পি", -8.816063567267333],
            ["▁রান", -8.820282784571079],
            ["▁অর্থাৎ", -8.820822449018767],
            ["▁আবদুল", -8.822086943901272],
            ["▁কামাল", -8.822358732228137],
            ["▁তারিখ", -8.822477067909206],
            ["▁দলীয়", -8.823421650685596],
            ["▁দরকার", -8.823786894950336],
            ["▁গোল", -8.824220892752322],
            ["▁বহু", -8.826574296311021],
            ["▁আয়", -8.827427726642181],
            ["▁লাশ", -8.828061874948782],
            ["▁তোমার", -8.82988026919343],
            ["▁সহকারী", -8.829915047648976],
            ["ড়", -8.830197301420016],
            ["▁এসময়", -8.830419072674077],
            ["▁চালু", -8.831604233001356],
            ["▁শিকার", -8.831777517692615],
            ["▁কৃষি", -8.831875779535729],
            ["▁অনেকেই", -8.832501791680563],
            ["▁সমাজ", -8.834734182390253],
            ["▁ক্ষমতা", -8.837581515474064],
            ["d", -8.83778150456875],
            ["▁দ্বারা", -8.838266906782778],
            ["▁সা", -8.83830968742465],
            ["▁কার্যক্রম", -8.83922957385011],
            ["▁হারিয়ে", -8.839256104501958],
            ["▁বছরে", -8.840101824438628],
            ["▁সৌদি", -8.840649450948243],
            ["%", -8.841741256843848],
            ["▁গ্রামে", -8.842247143987255],
            ["▁কয়েকটি", -8.842636421746919],
            ["▁সুন্দর", -8.843412385720843],
            ["▁ডিসেম্বর", -8.844830218983956],
            ["▁হলেন", -8.845587674891284],
            ["▁নাকি", -8.845918288069097],
            ["▁গ্রাম", -8.846182007529814],
            ["▁প্রকাশিত", -8.84777047637102],
            ["▁জল", -8.84789369141613],
            ["▁পদে", -8.848063847286353],
            ["▁পারবে", -8.84924095206021],
            ["▁মূল্য", -8.850625626153853],
            ["▁এপ্রিল", -8.851036944889904],
            ["▁নির্মাণ", -8.853152568623326],
            ["▁দিক", -8.854599107981604],
            ["▁পরিবেশ", -8.855007116243526],
            ["▁ভাষা", -8.857482160937659],
            ["▁অফিস", -8.857823616878203],
            ["▁ঢাকার", -8.857884989016462],
            ["▁ক্রিকেট", -8.858783734665531],
            ["▁দীর্ঘ", -8.861887094385095],
            ["▁দিলে", -8.862007542134256],
            ["▁পরিষদ", -8.862195525193053],
            ["▁বিভাগ", -8.863520433692994],
            ["▁খুবই", -8.863908745709667],
            ["য়ের", -8.866316696237927],
            ["▁পরিচয়", -8.870071666776798],
            ["▁মৃত", -8.870580314500726],
            ["▁চাইলে", -8.87336185467034],
            ["y", -8.873747337863112],
            ["▁জীবনের", -8.875471599229739],
            ["▁জনপ্রিয়", -8.875837832561915],
            ["▁সভাপতিত্বে", -8.877862680307576],
            ["▁ডলার", -8.877878932053493],
            ["▁বল", -8.879165358143968],
            ["▁জমা", -8.879356599480246],
            ["▁বিপক্ষে", -8.881304185247838],
            ["▁মাসের", -8.884045634664224],
            ["▁স্থান", -8.884562257846657],
            ["▁বুঝতে", -8.885524317459584],
            ["▁নিজেকে", -8.886226609070519],
            ["▁চিন্তা", -8.889390705130975],
            ["▁ডা", -8.889845291661553],
            ["▁জায়গা", -8.892542673119252],
            ["▁শহীদ", -8.89372735659558],
            ["▁সন্তান", -8.894402300559241],
            ["দার", -8.894688173360962],
            ["▁বিষয়ক", -8.895434802510973],
            ["▁মেডিকেল", -8.896569561807313],
            ["▁সুবিধা", -8.898516525388745],
            ["▁কাজের", -8.900561543286937],
            ["i", -8.900836629168337],
            ["▁মালিক", -8.901918125175452],
            ["▁এখনও", -8.904720384551327],
            ["▁নেন", -8.9085493673929],
            ["▁সময়ের", -8.909495095296654],
            ["▁বেড়ে", -8.909914274734977],
            ["মান", -8.911467917951123],
            ["▁কা", -8.912212079400549],
            ["▁অভিনয়", -8.912323399283581],
            ["▁নেতৃত্বে", -8.913707750241512],
            ["▁তৃতীয়", -8.913987089763701],
            ["লাম", -8.91486393065234],
            ["▁উঠেছে", -8.917000134229948],
            ["▁সুপার", -8.917087944074476],
            ["▁প্রবেশ", -8.918697355215022],
            ["▁ব্যাংকের", -8.91870950224804],
            ["পা", -8.922471978669908],
            ["▁আল্লাহর", -8.923109800266529],
            ["▁শিক্ষার্থীদের", -8.92326009141183],
            ["▁ফুটবল", -8.923541917774024],
            ["▁পুরস্কার", -8.923641362874154],
            ["▁ইসলামী", -8.923905060577168],
            ["▁মু", -8.924482304014617],
            ["▁পাওয়ার", -8.924783657372524],
            ["▁যদিও", -8.924959559348709],
            ["▁এমনকি", -8.925925097873092],
            ["▁সর্বোচ্চ", -8.92666896781889],
            ["▁রকম", -8.926758934216647],
            ["▁উদ্যোগে", -8.929538224024073],
            ["▁চুক্তি", -8.931121560371317],
            ["▁নিয়েছে", -8.931920151125468],
            ["▁হওয়ায়", -8.935138964544466],
            ["▁উদ্বোধন", -8.93794744150683],
            ["▁স্বপ্ন", -8.938960529353873],
            ["▁তাঁরা", -8.93910714683035],
            ["▁হা", -8.93990863343583],
            ["▁খরচ", -8.940273840520948],
            ["▁সহজ", -8.940877479930124],
            ["▁পড়েছে", -8.943736652982103],
            ["▁ব্যাপক", -8.94446235717508],
            ["আর", -8.944937712954623],
            ["পাড়া", -8.945285776427411],
            ["▁বরং", -8.945348084524095],
            ["▁প্রমুখ", -8.945648471409113],
            ["▁নির্বাচিত", -8.949383041613032],
            ["▁চোখ", -8.949794603454077],
            ["▁দিবস", -8.950596748122937],
            ["▁কুমার", -8.95089139446121],
            ["▁অবশ্যই", -8.951719628845881],
            ["নিউজ", -8.95457575145592],
            ["▁শ্রমিক", -8.954882609754542],
            ["▁বন্ধু", -8.955785521105033],
            ["▁নেমে", -8.957210006102228],
            ["প্র", -8.959342036068389],
            ["▁বে", -8.959541879630484],
            ["▁রোহিঙ্গা", -8.959652705628764],
            ["▁কিনা", -8.959916059305773],
            ["▁আই", -8.959939946282523],
            ["নের", -8.963002563660925],
            ["▁জিয়ার", -8.963295347148128],
            ["▁অথচ", -8.964341369839664],
            ["▁বিমান", -8.96446005848818],
            ["▁সংশ্লিষ্ট", -8.96509150752737],
            ["▁সেটি", -8.965196826409867],
            ["▁পার", -8.96704859461066],
            ["ীয়", -8.967813680644442],
            ["▁কবি", -8.96826415375917],
            ["▁বিশাল", -8.969378389324648],
            ["▁একবার", -8.970778117567201],
            ["▁তেমন", -8.971222986274666],
            ["▁সাত", -8.972260545595798],
            ["▁সূত্র", -8.973191219739686],
            ["▁সত্য", -8.97349779810787],
            ["▁জাতির", -8.97447530371975],
            ["▁নিন", -8.975495336110205],
            ["▁যুগ্ম", -8.975729341137338],
            ["▁পি", -8.976730462274697],
            ["▁ঋণ", -8.978653599104627],
            ["▁সেরা", -8.979014942427524],
            ["▁শিল্প", -8.979305143318811],
            ["▁যত", -8.97936326692813],
            ["▁বিদ্যুৎ", -8.979629693780657],
            ["▁শাহ", -8.980817448078318],
            ["a", -8.981913879839073],
            ["▁ব্যবসা", -8.984125617918009],
            ["▁স্বাধীনতা", -8.985556073205299],
            ["▁প", -8.986530196575586],
            ["▁নদী", -8.988526963717048],
            ["▁অবশ্য", -8.988880951742827],
            ["গুলোতে", -8.989180525882563],
            ["▁ওঠে", -8.989418648593109],
            ["▁প্রতিবেদন", -8.98959214433003],
            ["▁জায়গায়", -8.990221139575159],
            ["ভি", -8.990667867067716],
            ["▁সংগঠন", -8.990740312632111],
            ["▁in", -8.991730472844123],
            ["দিন", -8.992820280566287],
            ["▁অর্জন", -8.993773464730424],
            ["▁মান", -8.99516471147961],
            ["▁মাথায়", -8.995634003167932],
            ["▁সম্মেলনে", -8.996283436879091],
            ["▁বিরোধী", -8.996492149148024],
            ["▁সিনিয়র", -8.997793681104897],
            ["▁শক্তি", -8.998476591646558],
            ["▁দূর", -8.998878298320191],
            ["▁লাল", -8.99912502730835],
            ["▁অনুষ্ঠান", -8.999228437954322],
            ["▁কোম্পানি", -9.000179629417133],
            ["ায়", -9.0003783704905],
            ["▁প্রতিদিন", -9.001168642295216],
            ["▁নিয়মিত", -9.003981204656457],
            ["▁ইন", -9.004824721646502],
            ["▁জানি", -9.006208150765602],
            ["*", -9.00716052071498],
            ["তেই", -9.009659877733592],
            ["বিস্তারিত", -9.010535942449804],
            ["▁মানে", -9.010963248408624],
            ["▁কর্তৃপক্ষ", -9.010964092563832],
            ["▁মাছ", -9.0113554336667],
            ["▁পাবেন", -9.011561473154558],
            ["▁ছড়িয়ে", -9.012639983355651],
            ["▁রাখার", -9.012904330170253],
            ["▁সঠিক", -9.015160779680182],
            ["▁মহানগর", -9.01779328438713],
            ["▁ব্যবসায়ী", -9.018728676453875],
            ["▁হতো", -9.019676091073231],
            ["▁লক্ষ", -9.019883052594803],
            ["n", -9.019972686160443],
            ["▁দেবে", -9.020966899724256],
            ["▁কাদের", -9.02193288321651],
            ["▁বয়স", -9.022011734559577],
            ["▁জানুয়ারি", -9.02352618225531],
            ["▁কিভাবে", -9.024714693724594],
            ["▁গভীর", -9.026839605157216],
            ["▁প্রকল্প", -9.027587453828684],
            ["বো", -9.02792016086905],
            ["▁এমপি", -9.028504336359989],
            ["▁মডেল", -9.030003889391248],
            ["▁স্বামী", -9.030289312944488],
            ["▁অন্তত", -9.030486199472362],
            ["▁পরিস্থিতি", -9.031073831494565],
            ["▁ইতিহাস", -9.032242516386464],
            ["▁সাল", -9.032285197437083],
            ["▁জি", -9.035049669617592],
            ["▁কেবল", -9.035308124897885],
            ["▁বাহিনী", -9.03536175083252],
            ["ছিল", -9.036491201125466],
            ["▁রবিবার", -9.036557856757009],
            ["▁কবির", -9.036594602690844],
            ["r", -9.036595330578503],
            ["▁উদ্যোগ", -9.037197275829238],
            ["▁বাড়ির", -9.03870527476209],
            ["▁এদের", -9.039122318562198],
            ["▁প্রস্তাব", -9.03937344789864],
            ["▁লক্ষ্যে", -9.040104736116088],
            ["িয়ে", -9.041783677127258],
            ["▁খাদ্য", -9.041857787888912],
            ["▁মাথা", -9.043094842118698],
            ["▁সংগ্রহ", -9.045083510605409],
            ["▁a", -9.045357439694346],
            ["▁প্রভাব", -9.046591224962183],
            ["▁প্রচার", -9.047100360481185],
            ["▁শহর", -9.048127384588817],
            ["▁চলতি", -9.048538494190876],
            ["▁দায়ের", -9.049291131193636],
            ["▁শব্দ", -9.050486136659549],
            ["▁বেলা", -9.051352754354625],
            ["▁শিক্ষার্থী", -9.05349007001068],
            ["▁বিতরণ", -9.053725499327598],
            ["▁করেছিল", -9.054387162296438],
            ["▁জনগণের", -9.054927380651012],
            ["▁কু", -9.054947674957198],
            ["▁পরিচিত", -9.05630954280582],
            ["▁স্থাপন", -9.057307700243282],
            ["▁of", -9.05771877389035],
            ["কৃত", -9.057970666642156],
            ["▁ঘর", -9.058172293135955],
            ["▁ছয়", -9.058889490433888],
            ["▁পড়তে", -9.060188780556514],
            ["▁সাংবাদিকদের", -9.06057113904297],
            ["▁খারাপ", -9.060793263541012],
            ["▁আপনাদের", -9.06314838677248],
            ["▁জেনারেল", -9.06414686622842],
            ["▁প্রমাণ", -9.06441948862264],
            ["▁আর্থিক", -9.06634038835671],
            ["▁চাপ", -9.067404785036157],
            ["▁আহ্বান", -9.067677207519855],
            ["▁পরিবহন", -9.067846708099966],
            ["▁হঠাৎ", -9.06805308504165],
            ["▁কলেজের", -9.068647105602455],
            ["▁বলছেন", -9.069561381516255],
            ["▁পেয়েছে", -9.07040868433466],
            ["▁আসার", -9.07058074135469],
            ["▁রাজশাহী", -9.071452017045967],
            ["▁ছিলো", -9.071656291007605],
            ["▁শীর্ষ", -9.071668287514346],
            ["▁মেনে", -9.074572128327087],
            ["▁আনা", -9.07474624378506],
            ["দি", -9.076843549277491],
            ["▁চোখে", -9.077328330425642],
            ["▁পাঠানো", -9.077929139379115],
            ["▁জীবনে", -9.080517350081706],
            ["▁তরুণ", -9.081575305793304],
            ["▁কমে", -9.081791696755042],
            ["▁আলাদা", -9.082663783575756],
            ["হীন", -9.082681328437312],
            ["▁তিনটি", -9.0830806457336],
            ["▁লাগে", -9.083707811202304],
            ["▁রয়েছেন", -9.083816526339678],
            ["▁বাকি", -9.084949418884664],
            ["▁কিছুই", -9.084972370246426],
            ["▁অ্যান্ড", -9.086618387439646],
            ["▁কিছুটা", -9.088073183204507],
            ["▁গবেষণা", -9.088362262092314],
            ["▁অনেকে", -9.08970405616134],
            ["▁আদেশ", -9.091368691864451],
            ["▁প্রথমে", -9.092464958810805],
            ["▁বৈঠক", -9.092625044898078],
            ["▁স্বাভাবিক", -9.094241867817315],
            ["▁অন্যদিকে", -9.095836495715282],
            ["▁পরামর্শ", -9.09591597793185],
            ["▁থাকায়", -9.096105857532573],
            ["▁থাকলেও", -9.097622809135933],
            ["▁প্রিয়", -9.097824811716215],
            ["▁উৎপাদন", -9.101376170568775],
            ["▁প্রধানমন্ত্রীর", -9.101376570542994],
            ["▁কোম্পানির", -9.10210513736299],
            ["গণ", -9.102396061073591],
            ["▁ভারপ্রাপ্ত", -9.102497774907118],
            ["▁ফুল", -9.102820301867824],
            ["▁সম্পন্ন", -9.10502801049504],
            ["▁কঠিন", -9.105453994047174],
            ["▁আসবে", -9.106083997606047],
            ["▁রোগ", -9.106510639306824],
            ["▁নিয়ন্ত্রণ", -9.108342458013151],
            ["কালে", -9.110281959863844],
            ["▁খুঁজে", -9.111362846541716],
            ["▁একদিন", -9.111497735217007],
            ["▁মহা", -9.111614180852982],
            ["▁ফেব্রুয়ারি", -9.11211176585742],
            ["টাই", -9.112354317119133],
            ["▁পৌর", -9.112847742709546],
            ["▁একমাত্র", -9.112847968088888],
            ["▁পড়া", -9.114130808869964],
            ["▁আয়োজিত", -9.114236806564008],
            ["▁পাকিস্তান", -9.11446201135373],
            ["▁বৈঠকে", -9.115892547957934],
            ["▁মাহমুদ", -9.116688590663411],
            ["▁ঢাকায়", -9.11773313368766],
            ["▁জড়িত", -9.12166067300254],
            ["▁কেমন", -9.122825382188456],
            ["▁যুক্ত", -9.124701399827604],
            ["স্থ", -9.12571021170098],
            ["▁কারো", -9.126501998275902],
            ["▁যুক্তরাষ্ট্রের", -9.128620868914682],
            ["▁অভিযোগে", -9.129217691032874],
            ["▁ভিত্তিতে", -9.130522524121837],
            ["▁আদায়", -9.130642373816316],
            ["▁অত্যন্ত", -9.13130107425361],
            ["কাল", -9.131418276185377],
            ["▁জমি", -9.131851019756107],
            ["▁মানুষকে", -9.133107167505267],
            ["▁কেটে", -9.133731838513992],
            ["▁যাই", -9.134665074412558],
            ["▁মতে", -9.135367045389934],
            ["এম", -9.135988102842964],
            ["l", -9.136287320568298],
            ["▁রক্ষা", -9.137101407133631],
            ["▁প্রস্তুতি", -9.137653880027662],
            ["ড়া", -9.138497578393896],
            ["▁সরাসরি", -9.14003506109126],
            ["▁মিনিট", -9.142018828875656],
            ["▁হে", -9.14219915339724],
            ["▁কমিশনার", -9.142823148678806],
            ["▁ভবন", -9.14303570753755],
            ["▁লোকজন", -9.143275954893282],
            ["▁রহমানের", -9.144303423891868],
            ["▁যৌন", -9.144726538676542],
            ["ত্ব", -9.146366340638348],
            ["▁সৈয়দ", -9.146440470059389],
            ["▁ফেসবুক", -9.146483366800144],
            ["▁বিজ্ঞান", -9.146882177318965],
            ["▁নাগরিক", -9.148091635024736],
            ["▁বিকেলে", -9.148154571293873],
            ["▁ভয়", -9.148493557543873],
            ["▁পোস্ট", -9.148748978003637],
            ["▁বাহিনীর", -9.149394061554986],
            ["▁সমস্ত", -9.150801734883224],
            ["আমি", -9.150911633865936],
            ["▁ভিন্ন", -9.150990584119072],
            ["▁তালিকা", -9.151454692855308],
            ["▁দাঁড়িয়ে", -9.153472985404251],
            ["▁গরম", -9.156250706628924],
            ["▁মুক্তিযোদ্ধা", -9.157264162428694],
            ["▁গুলি", -9.158228732548888],
            ["▁মায়ের", -9.158296985302924],
            ["▁আনন্দ", -9.159295459538244],
            ["▁ফি", -9.160956743298822],
            ["▁গ্রুপ", -9.162801393136524],
            ["▁ইসলামের", -9.163180703589727],
            ["▁পরবর্তী", -9.163448575605434],
            ["▁রিপোর্ট", -9.164678294785942],
            ["▁আগুন", -9.164987327174792],
            ["▁কর্মসূচি", -9.165475348497829],
            ["▁ঘুরে", -9.165597387714916],
            ["▁নিকট", -9.166250717594004],
            ["ষ", -9.16687437362805],
            ["▁অস্ত্র", -9.16710047324242],
            ["▁শত", -9.167399455683464],
            ["▁ছবির", -9.167800622373871],
            ["▁খুলনা", -9.16827547428537],
            ["▁মনোনয়ন", -9.16848015584129],
            ["▁সহায়তা", -9.170077259718113],
            ["▁নিচে", -9.17046946754503],
            ["▁যুদ্ধ", -9.170796384303577],
            ["টিকে", -9.17127687413086],
            ["▁স্টাফ", -9.172184944475871],
            ["▁পুরুষ", -9.173065532974428],
            ["▁মহাসচিব", -9.174237585291747],
            ["ধ", -9.174357443762236],
            ["এস", -9.174448774926926],
            ["▁সংক্রান্ত", -9.175507400960663],
            ["▁গোপন", -9.177042137445348],
            ["▁সম্ভাবনা", -9.177468921622886],
            ["▁দুপুর", -9.179765373633026],
            ["ষ্ট", -9.180059909467852],
            ["▁হাসিনার", -9.180369104441322],
            ["▁তেল", -9.181711895386824],
            ["▁বিদ্যালয়", -9.18213281170052],
            ["টিতে", -9.182249805700009],
            ["▁পছন্দ", -9.183020239197774],
            ["▁বাদ", -9.1842355208294],
            ["▁ইংরেজি", -9.184630576969042],
            ["▁পবিত্র", -9.18546370836616],
            ["▁দিচ্ছে", -9.186074340262444],
            ["▁কয়েকজন", -9.186595985189983],
            ["▁মিনিটে", -9.186786809610386],
            ["▁কালো", -9.18846184615133],
            ["▁একাধিক", -9.188847216243248],
            ["▁সফল", -9.19021844397435],
            ["▁বিদ্যালয়ের", -9.190231535216348],
            ["▁বেসরকারি", -9.19043407036617],
            ["মূলক", -9.191360591150078],
            ["▁বাধা", -9.193125364999544],
            ["▁মৃত্যুর", -9.194824716129853],
            ["▁ছাত্রলীগের", -9.195232484547017],
            ["▁পদ", -9.19548054860845],
            ["▁প্রয়োজনীয়", -9.19626296473298],
            ["▁রাষ্ট্র", -9.197002507569843],
            ["স্", -9.198077572185852],
            ["▁যায়নি", -9.198870463513217],
            ["স্ট", -9.199251944005317],
            ["▁ঘটেছে", -9.199323540879748],
            ["গত", -9.199444883386102],
            ["▁তাদেরকে", -9.19948668514844],
            ["▁দেব", -9.199732574788612],
            ["▁অতি", -9.199735131395473],
            ["▁রাস্তা", -9.200524087059753],
            ["▁পোশাক", -9.200683942198806],
            ["▁news", -9.200932974543104],
            ["▁ইউপি", -9.202033648053863],
            ["▁বাতিল", -9.20276374071828],
            ["▁গুরুত্ব", -9.203823311383609],
            ["▁পৃথিবীর", -9.203850060041455],
            ["▁দেশটির", -9.203987538917325],
            ["▁জ্ঞান", -9.20417941913927],
            ["▁আসেন", -9.205322251746344],
            ["▁অপর", -9.205479280337784],
            ["▁যাদের", -9.205779055607309],
            ["▁পেছনে", -9.207507380486572],
            ["ভিত্তিক", -9.20835369853202],
            ["▁অপরাধ", -9.21028367344384],
            ["▁শুভ", -9.210780774462515],
            ["▁কোথায়", -9.21221287364154],
            ["▁গেছেন", -9.21272335451013],
            ["▁পাকিস্তানের", -9.214087489359429],
            ["▁আলো", -9.219889115768922],
            ["▁প্রশিক্ষণ", -9.220934472460828],
            ["▁পদক্ষেপ", -9.220972528697231],
            ["▁মহান", -9.222834145618831],
            ["▁বিয়ের", -9.223166361144267],
            ["▁সংগঠনের", -9.22486578657912],
            ["▁এভাবে", -9.225852358159749],
            ["▁ভেঙে", -9.226494976015406],
            ["▁সম্পদ", -9.227076518857634],
            ["▁বোর্ড", -9.227558799612522],
            ["▁এছাড়াও", -9.228952694623594],
            ["▁দৈনিক", -9.22938296402626],
            ["▁চীন", -9.230031994837628],
            ["▁রাজনীতি", -9.231628098159844],
            ["▁দিলেন", -9.231847881914772],
            ["▁পাবে", -9.23370766223557],
            ["▁নির্ধারণ", -9.23439539875046],
            ["▁শহরে", -9.234411396691108],
            ["▁পিতা", -9.234993879083753],
            ["▁আক্রান্ত", -9.235404905299616],
            ["▁মন্ত্রণালয়ের", -9.236152671163746],
            ["▁জেনে", -9.23661074104402],
            ["▁বিজেপি", -9.236857228454593],
            ["▁পরিণত", -9.2380112904449],
            ["=", -9.239962902597869],
            ["▁রেকর্ড", -9.240099308727642],
            ["▁বলছে", -9.24352406068383],
            ["▁বাসায়", -9.243656334163711],
            ["▁ডাক", -9.24400331101736],
            ["▁আক্তার", -9.24438337337638],
            ["▁কবিতা", -9.244551972973534],
            ["▁গ্রেপ্তার", -9.244924653495357],
            ["▁প্রতিবাদ", -9.245031234407206],
            ["▁সম্মেলন", -9.245182545910591],
            ["▁হামলার", -9.245288336383704],
            ["▁সম্পূর্ণ", -9.248737017549017],
            ["▁করব", -9.248943909384804],
            ["▁সাংগঠনিক", -9.2490510729694],
            ["▁খুলে", -9.249201968440628],
            ["▁সার্ভিস", -9.252782221118292],
            ["▁আধুনিক", -9.252988898062329],
            ["▁প্রশ্নের", -9.253598327753066],
            ["মন্ত্রী", -9.253633817791536],
            ["▁খেতে", -9.254446859181028],
            ["▁মাওলানা", -9.25504193734726],
            ["▁শুনে", -9.25638227924198],
            ["▁জনের", -9.257222544102364],
            ["▁স্থায়ী", -9.258033504581247],
            ["▁উইকেট", -9.25830490578949],
            ["▁রিপোর্টার", -9.25961529659084],
            ["▁বিচারপতি", -9.261213630719888],
            ["▁প্রশাসন", -9.26199183326896],
            ["▁মন্ত্রণালয়", -9.262917783219386],
            ["▁ধারা", -9.264073646601028],
            ["▁নদীর", -9.264246353595786],
            ["▁উন্নত", -9.26492206424234],
            ["ছিলাম", -9.265007432035295],
            ["▁প্রতিষ্ঠা", -9.265708641463185],
            ["▁খুন", -9.266137793114943],
            ["▁ছাড়াও", -9.266382180459004],
            ["▁দুধ", -9.266515153678956],
            ["▁প্রাণ", -9.266709377358206],
            ["▁কাজী", -9.26686810456655],
            ["▁চালানো", -9.267062752048735],
            ["▁হত্যার", -9.26804999874904],
            ["▁দুর্নীতি", -9.269093300712886],
            ["▁লেনদেন", -9.26914376868252],
            ["▁দূরে", -9.27023089953096],
            ["গা", -9.270349892517736],
            ["▁কোথাও", -9.271741645769238],
            ["▁রক্ত", -9.271799276153144],
            ["বাংলা", -9.27389187229369],
            ["▁মূলত", -9.27407009008611],
            ["▁প্রতিষ্ঠানের", -9.275599055396544],
            ["▁দিল", -9.275889132494395],
            ["▁বিজয়", -9.276760534653205],
            ["▁হিন্দু", -9.276849282408016],
            ["▁অ্যা", -9.277516130125402],
            ["▁উপজেলায়", -9.278284937605315],
            ["▁কার্যালয়ে", -9.27844770274286],
            ["▁রাজধানী", -9.278747438495618],
            ["▁কাউকে", -9.278893212609256],
            ["▁ইমাম", -9.2794878542808],
            ["▁নিয়ম", -9.279807766274224],
            ["▁ধীরে", -9.279869871911965],
            ["▁শান্তি", -9.28062767903232],
            ["▁অনুমোদন", -9.280863311574004],
            ["▁নজরুল", -9.28128065389792],
            ["▁সহযোগিতা", -9.282165089827474],
            ["▁অর্থনৈতিক", -9.282653421089034],
            ["▁দাবিতে", -9.283073061297584],
            ["▁বেরিয়ে", -9.28343733123745],
            ["▁পরীক্ষার", -9.284141943251187],
            ["▁দেখি", -9.284563866503872],
            ["▁বিন", -9.284610097492486],
            ["▁বন", -9.28501323942657],
            ["▁প্রেস", -9.28623619428592],
            ["শি", -9.289450177404376],
            ["▁পুত্র", -9.289705639187307],
            ["▁বিনিয়োগ", -9.291487284822628],
            ["▁পেয়েছেন", -9.291716217535727],
            ["▁মুহাম্মদ", -9.29187192086814],
            ["▁মুক্ত", -9.292595809505352],
            ["▁সাল্লাম", -9.292658780390076],
            ["▁পালিয়ে", -9.293588327924173],
            ["▁আশ্রয়", -9.293676076516562],
            ["▁চন্দ্র", -9.294897853822468],
            ["▁পার্টির", -9.29493582306114],
            ["▁লিমিটেড", -9.295471261186174],
            ["▁ব্যক্তিগত", -9.296375730214686],
            ["▁উল্লেখ্য", -9.298854255882556],
            ["▁করল", -9.299040868427223],
            ["ওয়া", -9.300397117009997],
            ["▁জোট", -9.300856543459272],
            ["▁হুমকি", -9.3011574734558],
            ["▁ক্ষতি", -9.301341203764313],
            ["▁শোনা", -9.30202820411338],
            ["▁মিলে", -9.30203002534862],
            ["▁দলে", -9.302382194928157],
            ["▁আন্দোলনের", -9.302392937751245],
            ["▁পয়েন্ট", -9.3033337945298],
            ["▁চলচ্চিত্র", -9.305176385856102],
            ["▁খাওয়া", -9.305554829151845],
            ["▁বেড়েছে", -9.306559793133664],
            ["▁দোকান", -9.308811124398463],
            ["▁দশমিক", -9.308866059770551],
            ["▁করতেন", -9.309402736205374],
            ["▁ব্যয়", -9.309600916208211],
            ["▁মধ্যেই", -9.311078178917503],
            ["▁বেশী", -9.311087990593634],
            ["▁হাসপাতাল", -9.312158369186106],
            ["▁চিত্র", -9.312341135743631],
            ["ানো", -9.312358563162633],
            ["▁পৌঁছে", -9.313572135718845],
            ["▁কারাগারে", -9.313599801705609],
            ["▁গিয়েছে", -9.314084290978204],
            ["▁নং", -9.314157000741355],
            ["▁করিম", -9.314494562850149],
            ["▁বাধ্য", -9.315182822019931],
            ["▁পারেনি", -9.315250027913883],
            ["▁সাদা", -9.31594204866128],
            ["▁লেখক", -9.31636860159683],
            ["▁শোক", -9.31662917024728],
            ["▁সদস্যরা", -9.31762677192246],
            ["▁সমর্থন", -9.31792089378968],
            ["▁খেয়ে", -9.31954613475047],
            ["▁কল", -9.31962991441166],
            ["▁অবৈধ", -9.319659690168873],
            ["▁শরীর", -9.3203355180284],
            ["▁অব্যাহত", -9.320338567757718],
            ["▁দখল", -9.320631172635196],
            ["▁ইয়াবা", -9.321533143147668],
            ["▁আইনের", -9.32166006856942],
            ["▁রাস্তায়", -9.322190264715228],
            ["▁বিশিষ্ট", -9.322539556578358],
            ["ing", -9.322574729632034],
            ["▁চাকরি", -9.324607480511462],
            ["▁বলল", -9.32465909752157],
            ["সু", -9.325141959835648],
            ["সের", -9.325888958986384],
            ["কো", -9.326107498244914],
            ["▁সমিতির", -9.326487903823416],
            ["▁ইচ্ছা", -9.327317137339294],
            ["▁যেসব", -9.328012381529096],
            ["▁টেস্ট", -9.32818455008418],
            ["▁উদ্দেশ্যে", -9.32826365700972],
            [">", -9.329003952478809],
            ["বেন", -9.329181644070763],
            ["▁জামিন", -9.330322328776202],
            ["▁অল্প", -9.33076087228803],
            ["▁একাদশ", -9.332173010428088],
            ["▁স্বীকার", -9.332443494002666],
            ["▁সাংস্কৃতিক", -9.333279279146597],
            ["▁উক্ত", -9.33330608473944],
            ["▁কর্মী", -9.334232492914554],
            ["▁বিশ্ববিদ্যালয়ে", -9.335790562369136],
            ["▁নেওয়ার", -9.336001588767186],
            ["▁তোমাদের", -9.337081563185135],
            ["▁তথা", -9.337231135473504],
            ["▁করায়", -9.33789784474004],
            ["▁কাল", -9.33925256092202],
            ["▁নির্দিষ্ট", -9.339458103212678],
            ["▁বোঝা", -9.340479888096874],
            ["ৎ", -9.340709824958866],
            ["▁আওতায়", -9.340948406142244],
            ["মু", -9.341359684893908],
            ["▁আইনজীবী", -9.341438903709776],
            ["▁গ্যাস", -9.341683294472707],
            ["▁অনুরোধ", -9.341694983658895],
            ["▁সম", -9.34219079232095],
            ["▁বার্তা", -9.343162309469674],
            ["▁and", -9.344026531211195],
            ["▁ভাষায়", -9.3445772601122],
            ["▁উদ্দেশ্য", -9.345465051060366],
            ["▁ভেতরে", -9.346776773049248],
            ["▁প্রসঙ্গে", -9.346874056286191],
            ["নং", -9.34762468982782],
            ["ed", -9.348130881609327],
            ["▁জারি", -9.34913370665927],
            ["▁কখনও", -9.349927940071272],
            ["▁চলাচল", -9.352034783270511],
            ["▁সামরিক", -9.352077627300837],
            ["b", -9.352433530632794],
            ["▁গাছ", -9.35269935361038],
            ["▁এনে", -9.354016810152055],
            ["o", -9.354097909516506],
            ["▁হাই", -9.35471563013684],
            ["▁সমাধান", -9.35506156237376],
            ["▁রাখে", -9.355205263916922],
            ["▁রূপ", -9.355707500351215],
            ["▁কার্যকর", -9.356117554050694],
            ["▁কষ্ট", -9.356492749640982],
            ["▁অনুমতি", -9.356515875220303],
            ["▁তুলনায়", -9.358408909426151],
            ["▁গোলাম", -9.358889979569238],
            ["▁প্রশাসক", -9.35934985317116],
            ["▁মিডিয়া", -9.35954882517826],
            ["▁উৎসব", -9.359894934083064],
            ["▁ডিজিটাল", -9.360243439602032],
            ["এই", -9.360807744767577],
            ["▁সন্ধ্যায়", -9.360979263291838],
            ["▁বলি", -9.360988310217037],
            ["▁স্বাধীন", -9.36103125898267],
            ["▁প্রতিনিধিঃ", -9.363717788849],
            ["▁অধিনায়ক", -9.364572908380556],
            ["▁আদালতের", -9.365218602398947],
            ["ফা", -9.366236156447986],
            ["▁সমাজের", -9.36697098301923],
            ["g", -9.367842038408329],
            ["▁চরম", -9.368233067949982],
            ["▁নুরুল", -9.369772679384232],
            ["▁পার্টি", -9.369857978231568],
            ["▁ভাড়া", -9.370951992179162],
            ["▁এগুলো", -9.37095410013821],
            ["▁নিরাপদ", -9.374878254699698],
            ["▁প্রকল্পের", -9.376014378604069],
            ["য়ার", -9.376458826875924],
            ["নগর", -9.376721438052472],
            ["▁চলেছে", -9.377054522967688],
            ["▁ক্ষমতায়", -9.377667885623037],
            ["▁ব্যাপার", -9.377700930922144],
            ["মার", -9.37809824499966],
            ["▁বিক্ষোভ", -9.378896159159073],
            ["▁আক্রমণ", -9.378940932922642],
            ["▁কর্ম", -9.378948226314789],
            ["▁একে", -9.37897579763386],
            ["▁সিনেমা", -9.379043789180953],
            ["▁ঈদ", -9.379811875732026],
            ["c", -9.380950961529804],
            ["▁সংস্কার", -9.382157012423813],
            ["▁চালক", -9.383890578597931],
            ["▁দ্য", -9.384281442398231],
            ["▁জাতি", -9.385435300786128],
            ["▁সেক্স", -9.385984270278698],
            ["▁প্রক্রিয়া", -9.385999282584631],
            ["▁আজকের", -9.386158642129754],
            ["▁কিলোমিটার", -9.387596971016912],
            ["▁সবাইকে", -9.388322348673965],
            ["▁আরব", -9.388385572106031],
            ["▁মাল", -9.388752101877923],
            ["কেই", -9.38875253753294],
            ["▁সরকারী", -9.38906110505974],
            ["▁ঘণ্টা", -9.38915436994022],
            ["▁অবস্থিত", -9.39304212762493],
            ["▁হু", -9.394734621248228],
            ["▁খেলে", -9.39489726551279],
            ["▁শক্তিশালী", -9.39496453444384],
            ["▁বিকেল", -9.395335239922536],
            ["▁কর্তৃক", -9.395985255027425],
            ["▁কার্ড", -9.396192167204848],
            ["▁ধর্মীয়", -9.39645931958654],
            ["▁উপায়", -9.396859598063134],
            ["লার", -9.397400780563874],
            ["▁জানেন", -9.398070003500942],
            ["▁অপেক্ষা", -9.3981149413268],
            ["▁নির্যাতন", -9.39829576476185],
            ["▁চূড়ান্ত", -9.398980374605255],
            ["▁তেমনি", -9.399757795817434],
            ["▁নবী", -9.400679958573548],
            ["▁বাস্তবায়ন", -9.40080622565272],
            ["▁জে", -9.402379715534328],
            ["▁নিজে", -9.403424462171966],
            ["▁পদ্ধতি", -9.403567006682993],
            ["্স", -9.403714374940863],
            ["▁হযরত", -9.40381516992162],
            ["▁সফর", -9.404711384381956],
            ["চার", -9.404892737277072],
            ["▁সর্বশেষ", -9.404908233093902],
            ["▁পশ্চিম", -9.40643452675571],
            ["▁নিয়েছেন", -9.40702027785798],
            ["▁সরবরাহ", -9.40762790359546],
            ["সার", -9.40767759260717],
            ["▁জনকে", -9.409247918575687],
            ["▁মিথ্যা", -9.41206308797456],
            ["x", -9.413753868104152],
            ["▁তারকা", -9.415525840471616],
            ["▁উন্নয়নের", -9.417746533186742],
            ["▁আদর্শ", -9.418024234059324],
            ["»", -9.418260196885496],
            ["▁মানব", -9.420832766285823],
            ["m", -9.42244529872788],
            ["▁নেয়ার", -9.423123124429983],
            ["▁ব্যক্তির", -9.424175483719264],
            ["▁জরুরি", -9.425207482011928],
            ["▁বদলে", -9.425623586759825],
            ["▁দর", -9.425958466631467],
            ["▁হাজির", -9.426135937394037],
            ["▁উপরে", -9.426390033797112],
            ["▁আট", -9.426857984249018],
            ["▁কেজি", -9.427077287574532],
            ["▁এল", -9.427288939009497],
            ["▁ওসি", -9.427784059146791],
            ["▁বরিশাল", -9.428315299744003],
            ["▁কীভাবে", -9.429028616838735],
            ["▁ছবিতে", -9.429865378552572],
            ["▁বাংলাদেশি", -9.430186826068583],
            ["▁সবুজ", -9.432314422870768],
            ["▁যুক্তরাষ্ট্র", -9.433116685558318],
            ["▁নেতারা", -9.433546337380106],
            ["news", -9.434349709126968],
            ["er", -9.43458190978532],
            ["▁চাহিদা", -9.434835669126125],
            ["▁দেখার", -9.436291666040107],
            ["▁চেয়ারপারসন", -9.436795896227608],
            ["▁এন্ড", -9.437357875025654],
            ["▁সাহিত্য", -9.437837115957874],
            ["▁তোলা", -9.43834337803844],
            ["▁মাধ্যমিক", -9.43896664752864],
            ["▁প্রচুর", -9.439167760754277],
            ["▁সংস্থার", -9.439480974153946],
            ["▁দীর্ঘদিন", -9.439652597241606],
            ["▁গোলে", -9.43966080137138],
            ["▁পাই", -9.439942082165894],
            ["▁হিসাব", -9.440513215629151],
            ["▁পরীক্ষায়", -9.440807065796086],
            ["▁এরা", -9.44101690594471],
            ["মো", -9.441680137099723],
            ["▁মি", -9.44238371723148],
            ["▁স্ব", -9.443155846354903],
            ["▁কম্পিউটার", -9.444343956017578],
            ["▁আওয়ামীলীগের", -9.444561245671997],
            ["▁আপনারা", -9.447576058427536],
            ["▁ট্রাম্প", -9.447648148831378],
            ["▁নষ্ট", -9.448359386356104],
            ["▁্যাব", -9.448826615155753],
            ["▁মিছিল", -9.449108785404844],
            ["▁আম", -9.449583779711162],
            ["▁তৈরী", -9.4498001169275],
            ["▁শরীরের", -9.449950579965613],
            ["▁দি", -9.451203519591798],
            ["▁ঈদের", -9.452587700230652],
            ["▁বেতন", -9.454099045365236],
            ["▁যাচ্ছেন", -9.454623166613908],
            ["▁শিশুদের", -9.455338162453602],
            ["▁ঘরের", -9.455373743855288],
            ["▁পরিষ্কার", -9.45557156492891],
            ["পত্র", -9.456016834859875],
            ["▁চুল", -9.456368972639488],
            ["▁নির্ধারিত", -9.45669398669548],
            ["স্ত", -9.457338031126666],
            ["▁পারলে", -9.458909071623452],
            ["▁প্রেম", -9.458956953354235],
            ["▁ব্যবস্থাপনা", -9.459735998578171],
            ["▁ঘুম", -9.460575676906064],
            ["p", -9.46083157206728],
            ["▁স্মৃতি", -9.461008539043538],
            ["ড়ি", -9.462291458069346],
            ["▁প্রতিরোধ", -9.462634261804403],
            ["▁বর্ণনা", -9.462713889985874],
            ["▁খেলার", -9.463720398804654],
            ["▁সেনা", -9.464999260714736],
            ["▁আঘাত", -9.465756561858491],
            ["▁আসামি", -9.465856499127746],
            ["▁জা", -9.466334881196405],
            ["▁নারীর", -9.46640041241784],
            ["॥", -9.466485658820888],
            ["▁বাংলার", -9.466966793985574],
            ["▁উপদেষ্টা", -9.467157684953282],
            ["▁অধিকাংশ", -9.46784172552488],
            ["▁অভিজ্ঞতা", -9.46934296553466],
            ["▁bangla", -9.470212205908078],
            ["▁ভারতে", -9.47042430461397],
            ["▁to", -9.47077914152849],
            ["▁ধন্যবাদ", -9.471124734878714],
            ["▁গো", -9.47149949146749],
            ["▁রাষ্ট্রপতি", -9.472162252284996],
            ["▁ওষুধ", -9.47217840729791],
            ["▁বক্তব্যে", -9.472402378151434],
            ["▁জঙ্গি", -9.4725376169284],
            ["▁টু", -9.472802122148916],
            ["▁খুশি", -9.47307042636608],
            ["▁জোর", -9.47326435401972],
            ["ময়", -9.47360252900203],
            ["▁কল্যাণ", -9.474248378378524],
            ["▁দোয়া", -9.474972246858709],
            ["লু", -9.476010380289512],
            ["▁কো", -9.47606907695614],
            ["ন্ত", -9.476298159951014],
            ["সভাপতি", -9.477020409532935],
            ["▁অংশগ্রহণ", -9.478160269856971],
            ["ৈ", -9.478335877769108],
            ["▁ভাব", -9.478358206796836],
            ["▁পেলে", -9.478683390426491],
            ["▁উভয়", -9.479578108628807],
            ["▁শাখার", -9.479678066943787],
            ["▁ধরণের", -9.479810958563696],
            ["▁বাঙালি", -9.480731381560982],
            ["▁ছবিটি", -9.481127472494542],
            ["▁করলেও", -9.481190272129345],
            ["▁আনতে", -9.48126861776562],
            ["▁ভাইস", -9.481290451403671],
            ["▁কার", -9.481898077199768],
            ["▁প্রবাসী", -9.482360343817083],
            ["পার", -9.482366157704456],
            ["▁আরেক", -9.483345292271096],
            ["▁দাস", -9.484883866170632],
            ["▁সেদিন", -9.48511848492206],
            ["▁তীব্র", -9.485424518420649],
            ["▁করলাম", -9.48578866424075],
            ["▁গোয়েন্দা", -9.486304624277825],
            ["▁যৌথ", -9.486637119320346],
            ["▁ভেতর", -9.487020089643591],
            ["▁যাত্রী", -9.487050768637316],
            ["▁সমাবেশ", -9.488197093143508],
            ["▁কেন্দ্রে", -9.488603863059955],
            ["al", -9.488921941107932],
            ["▁চলবে", -9.489621313929732],
            ["▁পূরণ", -9.490486037885017],
            ["▁রাজ্য", -9.491195190325788],
            ["▁লাইন", -9.492211699604692],
            ["▁তালিকায়", -9.49234707002516],
            ["▁ইন্টারনেট", -9.4926651015086],
            ["▁মুখোমুখি", -9.494076375850527],
            ["▁নির্বাচনী", -9.494124974812545],
            ["কম", -9.494279541932194],
            ["▁চাল", -9.49442877320424],
            ["চি", -9.494857713935552],
            ["▁পড়ার", -9.495087013408138],
            ["▁স্পষ্ট", -9.497007777626976],
            ["লী", -9.4978299168283],
            ["আলাইহি", -9.498749043519586],
            ["▁ফিরিয়ে", -9.499964664362896],
            ["▁ভেবে", -9.50010487563261],
            ["▁রাজা", -9.50024620168812],
            ["▁শিল্পী", -9.500651905079405],
            ["▁এজন্য", -9.501361655858013],
            ["▁ইকবাল", -9.5014774336532],
            ["▁চিকিৎসক", -9.501554852316756],
            ["▁হত", -9.503639935431952],
            ["▁তৃণমূল", -9.504582159096133],
            ["▁মাঠ", -9.505050330995005],
            ["▁শিক্ষার্থীরা", -9.505739097846094],
            ["▁হোটেল", -9.507973547303047],
            ["▁ইতিমধ্যে", -9.507983954000668],
            ["▁ব্রিটিশ", -9.509809414040705],
            ["▁টিম", -9.50985037120569],
            ["▁টিভি", -9.510356205541468],
            ["সাল্লাল্লাহু", -9.510753660427213],
            ["▁অন", -9.511693094908976],
            ["▁সক্ষম", -9.512229035657173],
            ["▁একেবারে", -9.51284590279552],
            ["▁মেহেরপুর", -9.513194022238718],
            ["▁যিনি", -9.513233730453152],
            ["▁সংরক্ষণ", -9.51347706937307],
            ["গো", -9.513693074277386],
            ["▁জড়িয়ে", -9.514550084227276],
            ["আই", -9.515524445140148],
            ["▁নাটক", -9.51559476071542],
            ["▁on", -9.515699799162654],
            ["▁ক্রীড়া", -9.516034378276164],
            ["ভার", -9.516778394574018],
            ["▁লা", -9.518145297942022],
            ["▁আগ্রহ", -9.518252882602658],
            ["▁ডটকম", -9.518662764683336],
            ["▁বলেই", -9.51928333657305],
            ["▁শা", -9.519762331672716],
            ["▁মুজিবুর", -9.52015182211303],
            ["▁মিলিয়ে", -9.52128536699131],
            ["▁প্রতিবেদক", -9.521293047745122],
            ["▁পূর্ণ", -9.521775396997064],
            ["ুন", -9.52298170127668],
            ["▁সার", -9.523208340315326],
            ["▁সপ্তাহে", -9.523231299121262],
            ["▁কাটা", -9.52414382209354],
            ["▁গা", -9.524890226030186],
            ["#", -9.525149201828697],
            ["▁অবদান", -9.525282582309677],
            ["▁অতিথির", -9.525403997246324],
            ["▁ঐক্য", -9.527292294896125],
            ["▁নগরীর", -9.527361852666996],
            ["▁মুহূর্তে", -9.528147795462278],
            ["▁বিপুল", -9.52832023835161],
            ["▁দুর্ঘটনা", -9.52905787946038],
            ["▁নেতৃত্ব", -9.52959840728366],
            ["▁সদস্যদের", -9.53051382316841],
            ["▁জবাবে", -9.530831835963752],
            ["k", -9.531122763697471],
            ["▁এরকম", -9.531288402738404],
            ["▁চিঠি", -9.53131935633874],
            ["▁ছাত্রলীগ", -9.531352366290756],
            ["▁আসনে", -9.53136580250606],
            ["▁দুটো", -9.532610248777893],
            ["▁গড়", -9.533253809721913],
            ["▁অনুষ্ঠানের", -9.53401977776169],
            ["▁এটাই", -9.53480399025463],
            ["▁আশঙ্কা", -9.534980993789576],
            ["▁দশ", -9.53537638610627],
            ["▁বলেও", -9.535912273783024],
            ["▁প্রস্তুত", -9.536030662593554],
            ["▁প্রশাসনের", -9.536341874358865],
            ["▁ঘট", -9.53642849012137],
            ["▁নামক", -9.538219860978744],
            ["▁তুলতে", -9.539136739827583],
            ["▁অভিনেত্রী", -9.539982085717714],
            ["▁সামান্য", -9.54144589082753],
            ["▁ডে", -9.541704843462192],
            ["▁টানা", -9.54197304783206],
            ["▁ঘিরে", -9.541981871017796],
            ["▁বিশ্বকাপ", -9.542660344829072],
            ["▁খোলা", -9.543225952659148],
            ["▁কোচ", -9.543704506890531],
            ["▁শাখা", -9.546267651012462],
            ["▁সন্ধ্যা", -9.54627501952658],
            ["▁শুধুমাত্র", -9.546352148247395],
            ["▁ফারুক", -9.547030610272977],
            ["▁মির্জা", -9.547218904158855],
            ["▁সংকট", -9.547505073017986],
            ["▁বয়সী", -9.547974109872436],
            ["্যা", -9.54821811292107],
            ["মুক্ত", -9.548381779557806],
            ["▁আলমগীর", -9.54862568201586],
            ["▁জানে", -9.549125365601457],
            ["▁তোমরা", -9.549730105184633],
            ["▁হাসপাতালের", -9.550352471564016],
            ["▁দৃশ্য", -9.550499397449208],
            ["▁পরি", -9.550687800553032],
            ["▁চাষ", -9.551220672042348],
            ["▁সেলিম", -9.55175767264152],
            ["▁শরীরে", -9.551803389587],
            ["▁কথায়", -9.552234407395073],
            ["▁দেখিয়ে", -9.552728613554892],
            ["▁মিল", -9.55311121260062],
            ["▁ওজন", -9.553208585719691],
            ["▁নিজেই", -9.55344109131749],
            ["গঞ্জ", -9.55369918686634],
            ["▁বৃষ্টি", -9.553856648476884],
            ["▁কন্যা", -9.554184856271068],
            ["▁হবার", -9.55568428188164],
            ["▁স্কুলের", -9.556789554211733],
            ["▁কঠোর", -9.556833822380565],
            ["▁যুবক", -9.55689666247826],
            ["▁অফ", -9.55710485028625],
            ["▁রোহিঙ্গাদের", -9.557123967419445],
            ["▁সাধারন", -9.55728605160606],
            ["w", -9.557294522460644],
            ["যা", -9.557445343394456],
            ["▁সাধারণত", -9.558082408811233],
            ["▁শ্রদ্ধা", -9.559326053481543],
            ["▁দান", -9.559487986262637],
            ["▁যেহেতু", -9.559592672311862],
            ["কী", -9.56096484007058],
            ["▁করেই", -9.562192239167649],
            ["▁সংস্কৃতি", -9.563605787264107],
            ["▁দাবী", -9.56369902164528],
            ["▁আয়োজনে", -9.564054735210888],
            ["▁বিল", -9.56450372196639],
            ["▁ধ্বংস", -9.564904711974838],
            ["▁প্রাকৃতিক", -9.565166990471402],
            ["▁লিখেছেন", -9.565222394565028],
            ["▁রচনা", -9.56532389939433],
            ["▁পরিচালিত", -9.566457822578714],
            ["▁ব্যস্ত", -9.568282889924356],
            ["▁পর্ব", -9.569515520337646],
            ["▁নারীদের", -9.570137309869644],
            ["▁ফলাফল", -9.570462568435476],
            ["▁প্রতিবেদনে", -9.570706994242409],
            ["_", -9.572553725500084],
            ["▁আরেকটি", -9.573147057753363],
            ["▁অনেকটা", -9.573406169779268],
            ["▁উপাদান", -9.573724623024749],
            ["▁বাবার", -9.574635771307612],
            ["▁খেলতে", -9.574757473131134],
            ["▁সালাম", -9.574950090931242],
            ["▁আসনের", -9.575246617357742],
            ["▁শারীরিক", -9.575697559664484],
            ["▁ক্লাব", -9.575920965742872],
            ["▁কিছুদিন", -9.575964995065396],
            ["েশন", -9.576413467974133],
            ["▁যুব", -9.57658953662735],
            ["▁খাতে", -9.577924636615558],
            ["▁কাপ", -9.57809331229947],
            ["▁গোটা", -9.578641874589806],
            ["▁সমান", -9.579476147383296],
            ["▁যাত্রা", -9.579815711234367],
            ["▁শুনানি", -9.580759086484496],
            ["টো", -9.581323194211333],
            ["▁কোটা", -9.581360041106088],
            ["▁মানসিক", -9.58296139620304],
            ["▁বলার", -9.584396565015608],
            ["▁সেখান", -9.584849880432245],
            ["▁নীতি", -9.585351017779583],
            ["▁ঢুকে", -9.58673032812423],
            ["▁সাকিব", -9.587238880107],
            ["▁নেতাদের", -9.58800829836078],
            ["িকা", -9.588540420868986],
            ["▁দমন", -9.589190492493184],
            ["রণ", -9.589625270055617],
            ["▁যথেষ্ট", -9.5898718771682],
            ["▁সম্মান", -9.590688401300504],
            ["▁থাকবেন", -9.591602970621864],
            ["▁জনগণ", -9.593902388558046],
            ["▁তারেক", -9.594671140039138],
            ["চা", -9.5949157978429],
            ["▁বেঁচে", -9.595065649583203],
            ["▁বুঝে", -9.595872334675194],
            ["▁লড়াই", -9.595878799591484],
            ["▁জিনিস", -9.596176705799897],
            ["▁পূর্বে", -9.596904203130215],
            ["▁এশিয়া", -9.597210965063368],
            ["▁বাণিজ্য", -9.59809311743672],
            ["▁আসন", -9.598434314991904],
            ["বাদ", -9.5986612051721],
            ["পূর্ণ", -9.598827872681612],
            ["▁ধান", -9.599258913206056],
            ["▁পাতা", -9.599342309914276],
            ["ভা", -9.600593258213385],
            ["তু", -9.600930040795584],
            ["▁পড়েন", -9.601101503289314],
            ["▁অধীনে", -9.60114131277644],
            ["▁এবারের", -9.601661804838464],
            ["▁নগর", -9.60193428875652],
            ["▁দিয়েছিলেন", -9.602109619202146],
            ["▁আজাদ", -9.602378630275886],
            ["▁প্রয়োগ", -9.60377607184098],
            ["▁ট্রেন", -9.604058816133891],
            ["▁নির্দেশনা", -9.604267346881514],
            ["▁বিজ্ঞপ্তি", -9.604512396863996],
            ["▁হবিগঞ্জ", -9.6055269324459],
            ["▁শাসন", -9.606362941307925],
            ["▁বিকল্প", -9.60789097092132],
            ["▁কারা", -9.609062244030545],
            ["▁কলকাতা", -9.610284839672527],
            ["▁কৃষক", -9.610990544568631],
            ["▁ভি", -9.61100430143268],
            ["▁বাড়িয়ে", -9.611172293294985],
            ["▁মসজিদ", -9.611180721405926],
            ["▁শাস্তি", -9.611346164632886],
            ["খা", -9.611629680099698],
            ["▁নৌকা", -9.613748309539316],
            ["▁পে", -9.614125501918698],
            ["সমূহ", -9.616005961389302],
            ["জার", -9.61822512623675],
            ["▁আটকে", -9.618271597810802],
            ["▁ফা", -9.618315241859651],
            ["▁ইউ", -9.618725643295829],
            ["▁ব্যর্থ", -9.618898361366854],
            ["▁পাক", -9.618971756703507],
            ["le", -9.619151823823495],
            ["▁প্রকৃত", -9.619744203522195],
            ["▁করবো", -9.62040773868624],
            ["▁আনোয়ার", -9.621409207308746],
            ["▁চলতে", -9.621486148834045],
            ["in", -9.6222823909766],
            ["▁উঠতে", -9.622575545529964],
            ["▁স্কুলে", -9.622744638362068],
            ["▁পাঠ", -9.623774837455668],
            ["▁সীমান্ত", -9.62387734037402],
            ["▁বিদায়", -9.624127762861798],
            ["▁পাশ", -9.62440033809984],
            ["▁সমস্যার", -9.624483291991991],
            ["+", -9.624668283616868],
            ["▁রেল", -9.626761314691883],
            ["▁দারুণ", -9.62738037600028],
            ["▁নূর", -9.628497735672374],
            ["ন্ড", -9.628936507636103],
            ["▁সবসময়", -9.629860404981985],
            ["▁পাস", -9.62993378270363],
            ["▁দেখানো", -9.631557230864432],
            ["▁ভূমি", -9.634032192313033],
            ["▁যেকোনো", -9.63648727071658],
            ["▁বলেছিলেন", -9.636545428801224],
            ["▁বাড়ছে", -9.636644670891137],
            ["▁চোখের", -9.63962824499794],
            ["▁দেবেন", -9.639631178076568],
            ["▁লিখে", -9.64102112326024],
            ["▁ডাক্তার", -9.641713695809482],
            ["▁সিবিএন", -9.641826711237018],
            ["▁সমালোচনা", -9.6418943108141],
            ["▁বসবাস", -9.641957235792397],
            ["▁জেলায়", -9.6419863864988],
            ["▁রানে", -9.64438342629683],
            ["▁মেয়েদের", -9.644778834176403],
            ["▁কারণেই", -9.644842316490683],
            ["▁আমিন", -9.647196496090466],
            ["▁রাজ", -9.64726315982536],
            ["মেন্ট", -9.647382383807178],
            ["▁সতর্ক", -9.647755583569715],
            ["▁লি", -9.648169121110213],
            ["▁সিরিজ", -9.64853622628354],
            ["▁গুরুতর", -9.64860632470464],
            ["▁হাসি", -9.649394089386064],
            ["▁আছি", -9.6496211554984],
            ["ূ", -9.65053977426076],
            ["u", -9.650652303278283],
            ["▁বিধান", -9.65118990281011],
            ["▁যেভাবে", -9.652284866778066],
            ["▁সেগুলো", -9.652430471049458],
            ["▁আব্দুর", -9.653674269199175],
            ["▁পারেননি", -9.653788417971446],
            ["ষ্ঠ", -9.654506788766406],
            ["▁সিস্টেম", -9.6554787811859],
            ["▁ভুলে", -9.655488494723546],
            ["▁মেলা", -9.656359954334294],
            ["▁অফিসে", -9.657684918518358],
            ["▁বয়সে", -9.658216696561595],
            ["▁আমদানি", -9.658883736475662],
            ["▁ফখরুল", -9.659812552509123],
            ["▁কর্মকর্তারা", -9.660039248471998],
            ["▁গুগল", -9.660040442535394],
            ["▁দরজা", -9.66022042958384],
            ["▁হি", -9.661003909952573],
            ["ক্ষ", -9.661455230191496],
            ["▁অসুস্থ", -9.661499005206974],
            ["▁জুড়ে", -9.661911057484373],
            ["▁বীর", -9.661919121947513],
            ["▁সকলের", -9.662114919453314],
            ["▁ওরা", -9.662561928941294],
            ["▁মাংস", -9.662863928628845],
            ["▁টাকায়", -9.663358751499398],
            ["▁ওবায়দুল", -9.664015744144262],
            ["▁অধ্যক্ষ", -9.665472664084003],
            ["▁c", -9.665580715572828],
            ["▁ব্যবহৃত", -9.665731220478747],
            ["▁বোন", -9.666727376333183],
            ["f", -9.667685987807497],
            ["▁রশিদ", -9.667712445107634],
            ["▁হবেন", -9.66775866072963],
            ["▁রানের", -9.667871040196887],
            ["বোধ", -9.668521626335618],
            ["▁সুস্থ", -9.668856060817058],
            ["গুলির", -9.66923401008755],
            ["▁ম্যাচের", -9.669414825916151],
            ["▁পরিদর্শন", -9.669738575290753],
            ["িয়ার", -9.67034635712162],
            ["বান", -9.671446130923195],
            ["তাম", -9.671740023527756],
            ["▁পরবর্তীতে", -9.671892896701234],
            ["▁কামনা", -9.673029533429206],
            ["▁যশোর", -9.673447686809714],
            ["▁নিষিদ্ধ", -9.673649958285685],
            ["▁গণ", -9.674843989585971],
            ["▁প্রতীক", -9.67494225311611],
            ["▁আচরণ", -9.675383214913808],
            ["▁আপিল", -9.675987300728236],
            ["▁সেতু", -9.678059959934885],
            ["▁পানির", -9.67838979575983],
            ["▁মানবাধিকার", -9.678477020592734],
            ["▁সচেতন", -9.678546487500094],
            ["▁বঙ্গবন্ধুর", -9.678618115835327],
            ["ঙ", -9.67943746934631],
            ["▁জনাব", -9.680474627547918],
            ["▁সপ্তাহ", -9.680634022158724],
            ["▁যাবেন", -9.68096455706181],
            ["▁চালায়", -9.681440298901656],
            ["মত", -9.682004854643756],
            ["▁সন্ত্রাসী", -9.68234220814016],
            ["▁করিয়ে", -9.682351572962684],
            ["▁গরু", -9.682482896389637],
            ["মন", -9.683273613847248],
            ["▁সাহেব", -9.683529091161626],
            ["▁এরই", -9.683552895580045],
            ["▁ত্যাগ", -9.68363103106548],
            ["▁এদিন", -9.683807408627114],
            ["▁বললাম", -9.68448403955668],
            ["▁বাজেট", -9.685624267689224],
            ["▁নিউ", -9.685935234723008],
            ["▁বাবু", -9.686367229691308],
            ["▁গঠিত", -9.686436461892756],
            ["▁সন্দেহ", -9.686530805034163],
            ["▁সড়কের", -9.68660695244677],
            ["▁কারনে", -9.687264752351672],
            ["v", -9.687551281259196],
            ["▁লাগবে", -9.687954722122448],
            ["বী", -9.688509773179035],
            ["▁বিভাগে", -9.688615725815122],
            ["▁ফের", -9.688645006129926],
            ["▁আকাশ", -9.689044570255504],
            ["▁ঐতিহাসিক", -9.689387697082308],
            ["▁তাছাড়া", -9.689809967705996],
            ["▁লিখিত", -9.690274774215416],
            ["▁more", -9.69081760742381],
            ["▁শুভেচ্ছা", -9.691251482347791],
            ["▁চট্টগ্রামের", -9.692310490622251],
            ["▁বিনোদন", -9.692898851759692],
            ["▁স্বরাষ্ট্র", -9.693125217325717],
            ["▁ধারণ", -9.693680375748151],
            ["▁সুতরাং", -9.693742787036678],
            ["▁কিনে", -9.693819953425606],
            ["▁দুঃখ", -9.694553616880718],
            ["▁সর্ব", -9.694709082904584],
            ["▁দৃষ্টি", -9.69533180176973],
            ["দে", -9.695668503357425],
            ["গুলোকে", -9.69630706614228],
            ["▁রাম", -9.696900106925238],
            ["▁লাগিয়ে", -9.697771457968072],
            ["coxsbazar", -9.697971449609891],
            ["▁এন", -9.698305126256075],
            ["▁ওদের", -9.698679916372352],
            ["▁পাহাড়", -9.698697931284627],
            ["▁ক্রয়", -9.69942925376499],
            ["▁নীল", -9.699585074869296],
            ["ৌ", -9.699971916160742],
            ["ফি", -9.702073146809164],
            ["▁আন", -9.702436117392017],
            ["▁অধিক", -9.702643493474252],
            ["▁মাধ্যম", -9.703145559910826],
            ["▁খাতের", -9.704025439695824],
            ["▁কাউন্সিলর", -9.704844506407929],
            ["▁শরীফ", -9.70488431954514],
            ["▁অঞ্চলের", -9.706495539358528],
            ["▁ফুট", -9.706918387955618],
            ["▁প্রতিষ্ঠিত", -9.707749167581165],
            ["▁অসংখ্য", -9.707783109657948],
            ["▁নজর", -9.708374547788784],
            ["▁সিলেটের", -9.709644244849928],
            ["ভাবেই", -9.710121458077056],
            ["▁মার", -9.7105754313663],
            ["প্রতি", -9.710868616504236],
            ["▁রাশিয়া", -9.711747204585135],
            ["▁কাপড়", -9.712615313609918],
            ["▁কেননা", -9.713033422854306],
            ["▁প্রতিমন্ত্রী", -9.71320177814408],
            ["▁ক্লিক", -9.713386918338475],
            ["▁পেরে", -9.713549159064184],
            ["▁থাকছে", -9.714080768145177],
            ["▁মেশিন", -9.714280306507826],
            ["▁দে", -9.715068628066849],
            ["▁স্বীকৃতি", -9.715203220721495],
            ["▁ওয়েব", -9.716004837705958],
            ["▁চি", -9.716067945654318],
            ["▁অনু", -9.716324882205315],
            ["▁হোসেনের", -9.71644457692405],
            ["▁বারবার", -9.71708928980464],
            ["▁পু", -9.718339209329091],
            ["▁বিদেশি", -9.718750925813744],
            ["▁শিশুর", -9.718862151118078],
            ["আমরা", -9.7192953829996],
            ["▁গ্রুপের", -9.719832372370345],
            ["▁থাকি", -9.719947371637344],
            ["▁জাহাঙ্গীর", -9.720147854783775],
            ["▁পুরনো", -9.720247392295372],
            ["▁সাফল্য", -9.72034131639808],
            ["▁চতুর্থ", -9.721193270202722],
            ["▁ডিগ্রি", -9.721384356163307],
            ["▁ব্যথা", -9.721812313078622],
            ["আমার", -9.72195706121328],
            ["▁নারায়ণগঞ্জ", -9.722439044584233],
            ["▁সংযোগ", -9.723540950223423],
            ["▁ব্যাখ্যা", -9.724783941830264],
            ["▁ফেরত", -9.725234705547132],
            ["▁মুক্তিযুদ্ধের", -9.72693830811213],
            ["▁দর্শক", -9.728698533992487],
            ["▁পানিতে", -9.729996568497954],
            ["সব", -9.730075151703936],
            ["▁সত্যি", -9.73247094221682],
            ["▁সুর", -9.73275103376659],
            ["▁বাসিন্দা", -9.732789053804836],
            ["▁গণতন্ত্র", -9.734934730669565],
            ["▁ডাউনলোড", -9.73559476894624],
            ["▁প্রত্যেক", -9.737393296506642],
            ["▁শিক্ষার", -9.737709688439306],
            ["▁শ্রী", -9.73787662922053],
            ["▁ওয়ার্ড", -9.737962161485024],
            ["উল", -9.738027540669917],
            ["▁দাখিল", -9.738086242914056],
            ["▁অর্থবছরে", -9.738098625875937],
            ["▁আলীর", -9.738262739910118],
            ["▁ক্যামেরা", -9.73877493679012],
            ["▁গায়ে", -9.738901335386888],
            ["▁ছাত্রী", -9.73970588876327],
            ["▁গেলেন", -9.739755362373296],
            ["▁সন্তানের", -9.7401914587352],
            ["▁স্বাধীনতার", -9.740640597484688],
            ["▁এতো", -9.74112593693619],
            ["▁সফরে", -9.741982524679887],
            ["▁বোর্ডের", -9.742024555569072],
            ["▁মাত্রা", -9.742868530233016],
            ["▁আলাইহি", -9.742883168058484],
            ["বু", -9.743651033305651],
            ["▁সমাবেশে", -9.74418007909547],
            ["▁অভিনেতা", -9.745010275080514],
            ["▁সরিয়ে", -9.7452974596359],
            ["▁অঞ্চলে", -9.745492405560642],
            ["▁অভিযানে", -9.745718347005251],
            ["▁বরাদ্দ", -9.746102930837962],
            ["▁গিয়েছিল", -9.746182773706288],
            ["▁বিখ্যাত", -9.746475724711754],
            ["▁কিশোর", -9.746858647118788],
            ["▁সাইট", -9.748049690204052],
            ["▁মেরে", -9.749094700967865],
            ["রাঃ", -9.749489972952649],
            ["▁চলমান", -9.749795529618885],
            ["▁for", -9.750081376638008],
            ["▁চর", -9.750104939220195],
            ["রাজ", -9.750167912329005],
            ["▁অভাব", -9.751159274295748],
            ["▁স্টক", -9.751197946620277],
            ["▁বিভাগীয়", -9.751445194959324],
            ["▁মনের", -9.751910725730829],
            ["▁মামুন", -9.752600348912974],
            ["▁ইচ্ছে", -9.75323710700676],
            ["▁পৌরসভার", -9.753865564528889],
            ["▁ক্লাস", -9.754559870311288],
            ["▁বাসা", -9.755060155351282],
            ["▁নেতৃবৃন্দ", -9.755163375807449],
            ["▁পাশের", -9.755188390560305],
            ["▁ওঠা", -9.75560837411506],
            ["▁মিয়ানমারের", -9.756486155912084],
            ["▁বন্দর", -9.756740905384085],
            ["▁করেনি", -9.75717752370558],
            ["▁দফা", -9.757314510742],
            ["ুজ্জামান", -9.757813098788883],
            ["▁পার্বত্য", -9.759052429008944],
            ["▁এলে", -9.759082869329704],
            ["▁মাটি", -9.760788854587409],
            ["▁ইতোমধ্যে", -9.760797358172496],
            ["▁সবকিছু", -9.761136014586333],
            ["▁read", -9.761647080726656],
            ["▁দায়", -9.762311397290084],
            ["▁পয়সা", -9.762971395476743],
            ["▁বগুড়া", -9.763232650141289],
            ["শী", -9.763419269420591],
            ["াম", -9.76361617735694],
            ["▁সাজা", -9.76365580145332],
            ["▁মাহবুব", -9.764076083267575],
            ["িরা", -9.76414787041229],
            ["▁চ্যালেঞ্জ", -9.764156043947043],
            ["▁নির্ভর", -9.764236989813629],
            ["▁চরিত্র", -9.764867076203942],
            ["▁বেশিরভাগ", -9.765217673066848],
            ["▁উপস্থাপন", -9.766037220647643],
            ["▁বিকাল", -9.766103991232946],
            ["▁মুক্তির", -9.767155240435278],
            ["▁প্রকার", -9.767177492002078],
            ["▁জরিমানা", -9.767254148774878],
            ["▁যুক্তি", -9.767332614950655],
            ["▁চামচ", -9.767546849444448],
            ["▁দেড়", -9.76769179640636],
            ["▁রাস্তার", -9.768157296211864],
            ["▁বিকাশ", -9.768277364803389],
            ["▁সমুদ্র", -9.768286469179648],
            ["▁প্রফেসর", -9.76831905532416],
            ["▁স্টেশন", -9.768483704629205],
            ["ম্যান", -9.769024961821968],
            ["▁শো", -9.77092105638362],
            ["▁পাল", -9.771373556456105],
            ["▁দেখুন", -9.773064393293977],
            ["▁কংগ্রেস", -9.773720597077489],
            ["▁সুমন", -9.77408956102011],
            ["▁বিচারক", -9.774263395025995],
            ["ঞ্জ", -9.774479233994803],
            ["▁বোমা", -9.774793157432908],
            ["▁চারটি", -9.77502456396044],
            ["▁উন্নয়নে", -9.775165383376184],
            ["▁দুজন", -9.776245615710888],
            ["&", -9.776534409140206],
            ["▁ফেসবুকে", -9.776712700659395],
            ["▁প্রতিবাদে", -9.77687534828386],
            ["▁রংপুর", -9.77803417664525],
            ["▁বিপ্লব", -9.778056632798176],
            ["▁বোধ", -9.778722837017652],
            ["▁অভিযুক্ত", -9.779560666314085],
            ["দু", -9.78000942559647],
            ["▁মিয়ানমার", -9.780962300351447],
            ["▁ফাইনালে", -9.781117304646411],
            ["▁অ্যাপ", -9.782330953880365],
            ["▁সংবিধান", -9.782717033362868],
            ["▁যাক", -9.782794851632612],
            ["▁মোস্তফা", -9.783117630794074],
            ["তলা", -9.783935269788568],
            ["▁শুরুতে", -9.784687484910204],
            ["▁উপহার", -9.784899405575334],
            ["▁জেল", -9.785001013786966],
            ["▁পারিবারিক", -9.785301366159793],
            ["▁ঝুঁকি", -9.785625048764697],
            ["▁ফসল", -9.787003921495462],
            ["▁সহজেই", -9.78717826083622],
            ["হার", -9.787590465033892],
            ["▁কারও", -9.79163637637982],
            ["▁ভিত্তি", -9.791908148996493],
            ["▁ঘটনাটি", -9.792215713822324],
            ["▁ইন্টারন্যাশনাল", -9.792373809513233],
            ["▁অঙ্গ", -9.792432594307114],
            ["▁উদযাপন", -9.792464099189534],
            ["▁বিবেচনা", -9.79269681483995],
            ["▁সোনা", -9.795844167381516],
            ["▁টাইমস", -9.79691290217719],
            ["▁অনেকের", -9.797425032959566],
            ["▁সাব", -9.797559816120264],
            ["▁রাজ্যের", -9.797987579584232],
            ["▁সার্বিক", -9.799414758069291],
            ["▁কোর্ট", -9.800268792130836],
            ["ঘ", -9.80055198953805],
            ["▁জবাব", -9.801027973692351],
            ["▁শি", -9.80135611954222],
            ["▁ভয়াবহ", -9.801773051303806],
            ["▁আসল", -9.802329538373517],
            ["জু", -9.802511500156092],
            ["▁আলোচনায়", -9.80272843413906],
            ["▁এক্ষেত্রে", -9.802899277691894],
            ["▁জয়ের", -9.80290952623365],
            ["▁নির্মিত", -9.802995553921534],
            ["▁শামীম", -9.803426295508476],
            ["▁পড়ছে", -9.803677294475996],
            ["▁ধর্ষণ", -9.803740496296486],
            ["▁কলেজে", -9.803880346774603],
            ["▁বিরাট", -9.804150330155997],
            ["▁জন্যই", -9.804499325865832],
            ["▁শর্ত", -9.806165746078747],
            ["▁প্রকৌশলী", -9.80658470532276],
            ["▁চিহ্নিত", -9.80994899669699],
            ["▁পৃথক", -9.81091811354598],
            ["▁তালুকদার", -9.81233191581196],
            ["▁আইনে", -9.812577460851072],
            ["▁তাকিয়ে", -9.812590406272776],
            ["▁মেয়ের", -9.81271435421209],
            ["▁ইমরান", -9.81413746479242],
            ["▁ফ্রি", -9.814602305733002],
            ["▁লম্বা", -9.8147424560125],
            ["ডা", -9.8150748749284],
            ["▁মিয়ার", -9.81524113405772],
            ["▁ক্ষমা", -9.815253026739908],
            ["▁সংঘর্ষে", -9.815938622569025],
            ["▁রং", -9.816159930777244],
            ["▁সংলাপ", -9.816641286567595],
            ["▁বস", -9.817316453421906],
            ["▁ডেকে", -9.817593014097966],
            ["টাকে", -9.818267757590402],
            ["▁ডিএসই", -9.819292470573632],
            ["▁অনলাইনে", -9.819459918806484],
            ["▁সালমান", -9.819994666955289],
            ["▁পতাকা", -9.820661832271565],
            ["▁হামিদ", -9.82137928917863],
            ["উদ্দিন", -9.821527173343906],
            ["ri", -9.823192749158688],
            ["▁করেননি", -9.824954695377828],
            ["▁খানের", -9.825180095363182],
            ["▁সেন্টার", -9.82681534477811],
            ["▁খোঁজ", -9.826927428916562],
            ["▁কেন্দ্রের", -9.827430933327587],
            ["▁নিখোঁজ", -9.827699403308328],
            ["▁লেগে", -9.82879889654281],
            ["▁বিদেশে", -9.829059122772726],
            ["▁মমতা", -9.829192043253071],
            ["▁ভ্রমণ", -9.82921470042619],
            ["▁নব", -9.8296154358887],
            ["▁রাজি", -9.830628101396572],
            ["▁শ্রেণির", -9.830655404279106],
            ["▁সুষ্ঠু", -9.830668673485045],
            ["▁গতি", -9.830865055916831],
            ["▁ওয়েবসাইট", -9.831039645801315],
            ["▁গানের", -9.83174261679767],
            ["▁সহযোগী", -9.831980579464387],
            ["▁হামলায়", -9.832230932386809],
            ["▁নামাজ", -9.833342635111643],
            ["▁অবশেষে", -9.834643258408551],
            ["▁ব্যবহারের", -9.834741572836654],
            ["ক্স", -9.835238465430098],
            ["▁তিনজন", -9.835622012556854],
            ["▁পিছিয়ে", -9.83601814590125],
            ["বল", -9.8367785293808],
            ["▁রেখেছে", -9.83754639077888],
            ["▁আমলে", -9.838308769868677],
            ["বাস", -9.838345180350467],
            ["▁অবাক", -9.839457057138953],
            ["▁বিনা", -9.839529825762254],
            ["▁দলটি", -9.839642468702095],
            ["▁হই", -9.839852225883526],
            ["▁আসন্ন", -9.840180983388464],
            ["link", -9.840364445025196],
            ["ড়ে", -9.841493536910017],
            ["▁বিকালে", -9.842241268963733],
            ["▁পড়বে", -9.842533998118425],
            ["▁প্রতিযোগিতা", -9.843127530207251],
            ["▁শুনতে", -9.84359502018089],
            ["▁একা", -9.84371260572289],
            ["▁ফাঁস", -9.844102974404372],
            ["বাড়ি", -9.84455287137414],
            ["যে", -9.84475104192908],
            ["বাজার", -9.845564674295655],
            ["তায়", -9.845678914479535],
            ["▁বলেছে", -9.84575242500324],
            ["▁গাছের", -9.848190647627794],
            ["▁গুণ", -9.849088064861288],
            ["▁খাতুন", -9.849206009375331],
            ["▁স্", -9.849921966843006],
            ["▁ক্ষুদ্র", -9.851786305680324],
            ["করণ", -9.852020585271122],
            ["▁প্রশংসা", -9.852034426601325],
            ["▁পাচ্ছে", -9.85237043902398],
            ["▁করত", -9.852646188623208],
            ["গু", -9.8527710838328],
            ["▁বিজয়ী", -9.854313054020166],
            ["থা", -9.854510774126544],
            ["▁আঞ্চলিক", -9.854765485549258],
            ["▁চিকিৎসার", -9.85479504746668],
            ["িতে", -9.854813055168744],
            ["▁আওয়ামীলীগ", -9.855741728758936],
            ["▁ঘটনাস্থলে", -9.856608732392626],
            ["▁অঞ্চল", -9.857424226976711],
            ["▁দলকে", -9.858124278083109],
            ["▁অর্থমন্ত্রী", -9.858152046842156],
            ["▁স্পোর্টস", -9.858156109603286],
            ["▁বিজিবি", -9.860206440838612],
            ["▁শতাধিক", -9.861689455018134],
            ["▁দিনাজপুর", -9.861726844554097],
            ["▁তোলার", -9.862702227120067],
            ["▁আলহাজ্ব", -9.86279808163732],
            ["এক", -9.86332080667512],
            ["▁মৌলভীবাজার", -9.863327231302952],
            ["▁ভবনে", -9.86507145062428],
            ["▁পত্রিকা", -9.865906992023978],
            ["▁সরকারকে", -9.866882127218505],
            ["re", -9.868701800841537],
            ["▁bangladesh", -9.86908518095272],
            ["▁প্রাপ্ত", -9.86953457391322],
            ["ইং", -9.870131481914788],
            ["▁জানাতে", -9.871832830257611],
            ["গার", -9.872798606454229],
            ["▁সাম্প্রতিক", -9.873525984194188],
            ["▁ফেরার", -9.873628556223528],
            ["▁মুসলমান", -9.875401233790726],
            ["▁বললে", -9.87543812523932],
            ["▁সোহেল", -9.875971701379822],
            ["▁চুরি", -9.876088240102124],
            ["▁বিশ্বে", -9.876321061830708],
            ["▁দায়ী", -9.877697379411442],
            ["ীরা", -9.878532445327236],
            ["▁তৈরির", -9.879204365528013],
            ["▁ঘন", -9.879432876787687],
            ["▁প্রত্যাহার", -9.880085094994678],
            ["▁ট্রাক", -9.880445018408876],
            ["▁ধরতে", -9.881468778082704],
            ["▁নিয়েই", -9.881528327480128],
            ["টুকু", -9.882004358135186],
            ["▁পর্বে", -9.882088210469364],
            ["▁টেনে", -9.882122674619634],
            ["▁de", -9.882268993902889],
            ["টু", -9.882288994127464],
            ["▁বেঁধে", -9.882374942032165],
            ["▁কৌশল", -9.882619517728791],
            ["▁প্রত্যাশা", -9.883144264644557],
            ["▁ছাড়", -9.883782686027622],
            ["▁মুজিব", -9.883850941833392],
            ["▁ষড়যন্ত্র", -9.884249791854776],
            ["▁মাসুদ", -9.884842704725065],
            ["▁খন্দকার", -9.884854350917188],
            ["▁এক্স", -9.885172150027644],
            ["▁দেহ", -9.885579466750992],
            ["▁বিগত", -9.8857905670514],
            ["▁গাজীপুর", -9.886618488637572],
            ["▁পাবলিক", -9.887106180703372],
            ["▁রাসূল", -9.887136700969831],
            ["▁উনি", -9.887308393177667],
            ["▁রফিকুল", -9.887390135470657],
            ["▁রায়ের", -9.887476874775777],
            ["▁রানা", -9.887873018937857],
            ["▁পড়লে", -9.889025592919069],
            ["▁বাম", -9.889497301807342],
            ["▁ডিম", -9.890870523276542],
            ["ইয়া", -9.891235539740002],
            ["▁দেখেছি", -9.891455274666235],
            ["▁হচ্ছেন", -9.892064956570271],
            ["▁সেনাবাহিনী", -9.89263289865738],
            ["▁সুরমা", -9.89336177024696],
            ["▁কুমিল্লা", -9.893418511602254],
            ["▁কার্যালয়", -9.893454434021866],
            ["ার্স", -9.893457392319554],
            ["▁দিয়েছিল", -9.893740690963604],
            ["▁জাল", -9.89517007851182],
            ["▁হারে", -9.89536643706096],
            ["▁অফিসের", -9.895640851134276],
            ["▁রাখুন", -9.896035840566462],
            ["▁বিপরীতে", -9.89604604593722],
            ["বাংলাদেশ", -9.896534823916548],
            ["▁সমাজে", -9.896587896389532],
            ["▁করলো", -9.89674609672802],
            ["▁বু", -9.8970308153253],
            ["▁ভালোবাসা", -9.897120849085452],
            ["▁চেক", -9.897520350196748],
            ["▁পুরোপুরি", -9.898095551953409],
            ["▁সমিতি", -9.898228054790442],
            ["▁পূজা", -9.898483768522354],
            ["▁কারন", -9.898937051467565],
            ["z", -9.899179690910987],
            ["▁ঘন্টা", -9.899366515146763],
            ["▁পত্র", -9.899717226536522],
            ["▁ফর", -9.900699879181388],
            ["▁এসেছেন", -9.90074806387365],
            ["রাম", -9.90099098945816],
            ["▁ভাবতে", -9.901388779013391],
            ["▁বিতর্ক", -9.901395456836736],
            ["▁তারিখে", -9.901977261364785],
            ["ar", -9.903059914716508],
            ["▁এইচ", -9.903645486299094],
            ["▁গণতান্ত্রিক", -9.904421397452406],
            ["▁অনুসরণ", -9.90449614409505],
            ["▁হালকা", -9.904746576786108],
            ["▁বার্ষিক", -9.904850851855088],
            ["▁অ্যাডভোকেট", -9.905401323137797],
            ["▁যেটা", -9.906816091540806],
            ["যুক্ত", -9.907706121099782],
            ["▁প্রেরণ", -9.907880977465425],
            ["▁মাটিতে", -9.90923009575799],
            ["▁বুক", -9.909515633863965],
            ["▁সং", -9.909740325997992],
            ["▁প্রদর্শন", -9.910273644614064],
            ["▁খালি", -9.910865646860634],
            ["▁কর্তৃপক্ষের", -9.911080148247024],
            ["▁ব্যা", -9.911475769685875],
            ["▁সংগ্রাম", -9.912957678853385],
            ["▁মরদেহ", -9.913331602017353],
            ["▁হাতের", -9.91399851660981],
            ["▁ডান", -9.914016709045798],
            ["িল", -9.914576629230153],
            ["▁পশু", -9.91483109955371],
            ["▁ময়মনসিংহ", -9.914850175162886],
            ["ইউ", -9.914858718588118],
            ["▁অস্বীকার", -9.915247624857704],
            ["▁আনার", -9.915982833765693],
            ["▁সড়কে", -9.917061387083576],
            ["▁কর্মকর্তাদের", -9.917215878899745],
            ["▁ছুটি", -9.91728629311891],
            ["শো", -9.917447475476544],
            ["▁ফরম", -9.918031784020856],
            ["▁বাচ্চা", -9.918178795175242],
            ["▁কক্ষে", -9.918234681859792],
            ["▁পরিশোধ", -9.918745573194068],
            ["▁উত্তেজনা", -9.919040251093762],
            ["মুখী", -9.919296625072894],
            ["▁চ্যাম্পিয়ন", -9.91950784774074],
            ["পর", -9.919544975434064],
            ["▁রাজনীতির", -9.919662333925176],
            ["▁মিলিয়ন", -9.919957757396762],
            ["▁ন্যায়", -9.921506748616023],
            ["▁ভোটার", -9.921701953636887],
            ["▁করপোরেশন", -9.921981872894456],
            ["▁আমেরিকার", -9.922259870219978],
            ["▁ডিজাইন", -9.922361393181989],
            ["▁আউট", -9.922849608206064],
            ["▁আমেরিকা", -9.922874570043003],
            ["▁চৌধুরীর", -9.923031823323951],
            ["▁মানববন্ধন", -9.923235457251105],
            ["▁টেকনাফ", -9.923648143616084],
            ["▁হাট", -9.923667112142118],
            ["বিরোধী", -9.923988958968645],
            ["▁ছিলাম", -9.924096028459612],
            ["▁re", -9.92443782705898],
            ["▁রবীন্দ্রনাথ", -9.92481342167418],
            ["▁স্থগিত", -9.926453620403333],
            ["▁স্টেডিয়ামে", -9.926741108369235],
            ["▁বিবাহ", -9.927000340210684],
            ["▁কোড", -9.92777725072192],
            ["▁সাড়া", -9.927904217075294],
            ["▁তালিকাভুক্ত", -9.928067730609246],
            ["▁বুকে", -9.928101320657683],
            ["রাই", -9.928430462623629],
            ["▁ফেলা", -9.928570284096551],
            ["▁টেবিল", -9.929494420816471],
            ["▁একসঙ্গে", -9.92989486322011],
            ["দী", -9.930023425028704],
            ["পু", -9.93010157602586],
            ["▁মিষ্টি", -9.930177209424482],
            ["▁উদ্ধৃতি", -9.93026176877322],
            ["▁সঙ্গীত", -9.93054309547582],
            ["▁উন্নতি", -9.930876868207005],
            ["▁স্বাগত", -9.930971550073728],
            ["▁বিশ্বকাপের", -9.931031149085172],
            ["▁বাঁধ", -9.93118905628436],
            ["বাদী", -9.931875862627985],
            ["▁সরে", -9.9324701543437],
            ["▁বেছে", -9.933397889577268],
            ["▁মিটার", -9.93346489553308],
            ["▁ভবিষ্যতে", -9.933466899207568],
            ["রূপ", -9.933534567199008],
            ["▁পর্যটন", -9.933771825918996],
            ["▁পালিত", -9.934388226921657],
            ["াতে", -9.934389520915309],
            ["▁ইনস্টিটিউট", -9.934741123927116],
            ["▁কতটা", -9.935553700452818],
            ["▁সন্ত্রাস", -9.935751219344509],
            ["রাও", -9.93589242174904],
            ["▁ট্রাস্ট", -9.93654775083094],
            ["▁ক্লাবের", -9.936929669247345],
            ["▁নেতাকর্মীদের", -9.938865794724324],
            ["▁টাঙ্গাইল", -9.93901526811005],
            ["▁জামায়াত", -9.939151936339302],
            ["িতা", -9.940153895564723],
            ["▁সংসার", -9.94086546612293],
            ["▁আলোচিত", -9.941201191794685],
            ["মী", -9.941620439847558],
            ["▁পাথর", -9.941970315613762],
            ["র্ণ", -9.9422083307031],
            ["▁রহিম", -9.942308372151722],
            ["▁আহবান", -9.942609740697437],
            ["▁মতামত", -9.942816617205454],
            ["▁অনুসারে", -9.943097319473152],
            ["▁সদস্যের", -9.943131190730757],
            ["▁দিচ্ছেন", -9.94343735622321],
            ["রিক", -9.943829315260531],
            ["▁আন্দোলনে", -9.944153742326524],
            ["▁রাষ্ট্রীয়", -9.944597464134915],
            ["প্রাপ্ত", -9.945491578101391],
            ["▁অা", -9.945669613002488],
            ["▁সক্রিয়", -9.94575069028761],
            ["▁আজকে", -9.946072293648209],
            ["▁দিলাম", -9.946514052861508],
            ["▁স্মরণ", -9.94658955414209],
            ["▁নোট", -9.946952745884436],
            ["▁জুটি", -9.947005196616354],
            ["▁লাইসেন্স", -9.947283996474152],
            ["▁দেখলে", -9.947286025437808],
            ["▁আহসান", -9.94798129351175],
            ["▁ইতিহাসে", -9.948167395833368],
            ["▁নিষেধাজ্ঞা", -9.948970131305984],
            ["▁ছুটে", -9.949637866123185],
            ["▁মিলনায়তনে", -9.949734497581932],
            ["▁বরাবর", -9.949788706058207],
            ["▁পর্যায়ের", -9.949808343989645],
            ["▁জাফর", -9.950120840337274],
            ["জান", -9.950268528750629],
            ["গুলিতে", -9.951536567080328],
            ["▁জিতে", -9.952718379129143],
            ["▁আস্তে", -9.952901342113678],
            ["▁নিয়ন্ত্রণে", -9.952913066685534],
            ["ওসি", -9.95396930096632],
            ["▁ম্যা", -9.954327652571184],
            ["▁রাসেল", -9.95469732750774],
            ["▁ব্যাট", -9.95523570761909],
            ["▁কালাম", -9.956201773090507],
            ["▁ডাঃ", -9.95627406662849],
            ["▁খাওয়ার", -9.95634830263209],
            ["▁নেবে", -9.958052376071164],
            ["▁ক্ষতিগ্রস্ত", -9.958149589088835],
            ["▁পাসপোর্ট", -9.959365663392235],
            ["নিক", -9.95946357942984],
            ["ঙ্ক", -9.959946258818364],
            ["খালী", -9.961484362785733],
            ["লিয়া", -9.96149389831456],
            ["ঙ্গ", -9.962032374808125],
            ["▁নিম্ন", -9.963027349678043],
            ["▁স্বাদ", -9.963652075556116],
            ["▁মৌসুমে", -9.963766411617724],
            ["▁দপ্তর", -9.963794262075838],
            ["▁যেত", -9.964051415861816],
            ["▁আসামী", -9.964149127372696],
            ["▁ভেঙ্গে", -9.964320330231986],
            ["▁রুহুল", -9.964323152743422],
            ["▁ভূ", -9.964717149632817],
            ["▁উল্লেখযোগ্য", -9.965402134765217],
            ["▁মিজানুর", -9.965426876851058],
            ["▁ধর্মের", -9.96607378659066],
            ["▁চ্যানেল", -9.966093846552273],
            ["▁সুপ্রিম", -9.966116380611783],
            ["▁খা", -9.966265283719036],
            ["▁গাড়ির", -9.967193319836888],
            ["▁বিনামূল্যে", -9.9672408335755],
            ["▁একক", -9.968075787024675],
            ["▁ইউনিট", -9.96808195560194],
            ["▁তখনই", -9.968353675560936],
            ["▁রাতের", -9.96836758982974],
            ["▁সোনার", -9.96838370650966],
            ["▁কর্মরত", -9.968650934391649],
            ["▁লেখার", -9.96921882678024],
            ["মতো", -9.969349952875582],
            ["▁করো", -9.96982096584912],
            ["▁ওরফ", -9.970068330961864],
            ["▁নিবন্ধন", -9.970241350415977],
            ["us", -9.970327476056854],
            ["শীল", -9.971079800302538],
            ["▁বিবৃতিতে", -9.971953771083747],
            ["্ব", -9.972272851659827],
            ["▁পরিচালনায়", -9.972762725399251],
            ["▁ছোট্ট", -9.973194756973808],
            ["▁অন্যায়", -9.973220214507196],
            ["▁রোড", -9.97347964570546],
            ["▁সংগ্রহের", -9.973590342999811],
            ["▁বাগান", -9.973891764911183],
            ["▁বলিউড", -9.97455423267821],
            ["▁জাতিসংঘের", -9.974893710624634],
            ["▁আত্মীয়", -9.975016325417757],
            ["▁পরও", -9.9750877004733],
            ["▁বজায়", -9.975262697890845],
            ["▁প্রয়োজনে", -9.976687444359598],
            ["▁সুপারিশ", -9.97691057595115],
            ["▁ঝড়", -9.9773329955683],
            ["▁ইরান", -9.978979963264752],
            ["▁দুর্ঘটনায়", -9.97956487518824],
            ["▁নগদ", -9.980327567414294],
            ["▁যাচাই", -9.980594693043424],
            ["▁সিরিজের", -9.980680179683588],
            ["▁পায়ে", -9.980782596937717],
            ["▁মিলন", -9.981610797488536],
            ["▁কিছুক্ষণ", -9.982669483490293],
            ["▁শেয়ারবাজার", -9.98306780862766],
            ["▁পিছনে", -9.98308095996916],
            ["▁উৎস", -9.983882723810368],
            ["লের", -9.984189903565884],
            ["▁ইবনে", -9.984281476626078],
            ["▁রবি", -9.984546224828806],
            ["▁দোকানে", -9.984809018123654],
            ["▁সাইফুল", -9.985265880184851],
            ["▁দাঁড়িয়েছে", -9.986757774920694],
            ["▁রান্না", -9.986770255906675],
            ["▁মহল", -9.986939872496864],
            ["▁পরের", -9.987730270950829],
            ["▁পুনরায়", -9.987732011977323],
            ["▁উপন্যাস", -9.987763743219054],
            ["h", -9.988730141445483],
            ["▁দা", -9.989765874394116],
            ["▁সহজে", -9.990479274107464],
            ["▁জমির", -9.990555817332716],
            ["ঙ্গা", -9.99090540067146],
            ["এইচ", -9.991277136915247],
            ["▁সংসদের", -9.991337296883325],
            ["দেশ", -9.991778989230928],
            ["▁স্বাক্ষর", -9.991991881208085],
            ["▁খেয়াল", -9.992339525280569],
            ["▁ম্যানেজার", -9.992423720548132],
            ["▁বৈশিষ্ট্য", -9.992843648032798],
            ["▁প্রতিষ্ঠাতা", -9.994777978534852],
            ["▁ছাড়াই", -9.99493560770926],
            ["▁উল", -9.995694828578712],
            ["▁বিশ্বকাপে", -9.995719790629968],
            ["•", -9.996890842973436],
            ["গ্রাম", -9.996944124631089],
            ["▁মৎস্য", -9.997037957312234],
            ["▁তোমাকে", -9.997077409392578],
            ["▁সৌন্দর্য", -9.997292116958182],
            ["▁মেয়াদ", -9.997343441993523],
            ["▁সেসব", -9.99761202666592],
            ["▁মাদ্রাসা", -9.997724705744012],
            ["▁জামাল", -9.997918016893347],
            ["▁সারাদেশে", -9.998060628493883],
            ["▁গেলো", -9.998509326213227],
            ["▁প্রচলিত", -9.998762275055451],
            ["▁দেখেন", -9.999425957726382],
            ["▁খু", -9.999778919226644],
            ["▁জো", -10.00074132263776],
            ["▁বিষ", -10.001297007848262],
            ["▁আজিজ", -10.001503872670169],
            ["র্থ", -10.001706066954377],
            ["ীদের", -10.001819225517186],
            ["▁বৃদ্ধির", -10.002127395473018],
            ["▁f", -10.002982520537248],
            ["▁শ্রেষ্ঠ", -10.003753720357304],
            ["▁শক্ত", -10.00381508131172],
            ["▁গ্রহন", -10.004231487155264],
            ["▁জমিতে", -10.004911634684198],
            ["▁রো", -10.005988167937302],
            ["ুয়া", -10.005994606762584],
            ["▁নিচ্ছে", -10.006199995463144],
            ["▁পাঠিয়ে", -10.006701955387364],
            ["▁নুর", -10.006715295141175],
            ["▁মর্যাদা", -10.006721686218876],
            ["▁যুগ", -10.007238146661082],
            ["▁ত্বক", -10.00841127521161],
            ["▁উদ্দেশে", -10.00911334567744],
            ["▁সংগীত", -10.009391333539288],
            ["▁হয়েছিলেন", -10.009632589214617],
            ["▁শ্রমিকদের", -10.009654844367208],
            ["ত্ত", -10.010632345715036],
            ["▁স্যার", -10.011360526159995],
            ["▁নিলে", -10.011606183661112],
            ["▁পরপর", -10.011789519196505],
            ["▁জিজ্ঞেস", -10.01269812867562],
            ["▁শুরুর", -10.01331907293258],
            ["st", -10.01375193650945],
            ["▁খেলোয়াড়", -10.013980229249002],
            ["ব্রাহ্মণবাড়িয়া", -10.014056864509293],
            ["▁কাগজ", -10.014087892512906],
            ["▁কাটিয়ে", -10.01413953582244],
            ["▁ওয়ানডে", -10.014224704094078],
            ["▁হার্ডকোর", -10.014383538327747],
            ["▁সত্ত্বেও", -10.014878673658586],
            ["▁আহ্বায়ক", -10.01510139414134],
            ["▁লিখতে", -10.01541767641212],
            ["▁গ্রহণের", -10.01542794103901],
            ["▁কারখানা", -10.015474819998772],
            ["▁ভিতরে", -10.0164493129857],
            ["▁ফাইল", -10.016692911511884],
            ["▁সমৃদ্ধ", -10.01671828854758],
            ["▁সফটওয়্যার", -10.016770308460911],
            ["▁লিটন", -10.016777915694126],
            ["▁হচ্ছিল", -10.017518393806652],
            ["▁অসাধারণ", -10.017803814865136],
            ["▁বিশ", -10.018681911921885],
            ["▁ফোনে", -10.018790406826266],
            ["▁ন্যাশনাল", -10.0189959694467],
            ["▁গলা", -10.019285892436466],
            ["▁বাস্তব", -10.019616139579597],
            ["▁সেনাবাহিনীর", -10.019721236935196],
            ["▁সাগর", -10.020118765460191],
            ["▁ফান্ড", -10.02043232783914],
            ["যোগ্য", -10.020597552002275],
            ["▁প্রথমবারের", -10.020910769990698],
            ["▁শ্রম", -10.020982556592246],
            ["▁শূন্য", -10.021036671740184],
            ["▁পৃথিবীতে", -10.021062148910678],
            ["▁মন্দির", -10.02124737829562],
            ["▁ইফতার", -10.02196957652144],
            ["▁ওভারে", -10.022593737790432],
            ["▁নায়ক", -10.022795953955766],
            ["▁সবজি", -10.023078137211089],
            ["▁মার্কেট", -10.02394042343132],
            ["বির", -10.02398612213037],
            ["▁ভিড়", -10.024324965629235],
            ["▁মিশিয়ে", -10.024820912679216],
            ["▁সূর্য", -10.02503135406296],
            ["▁মিরপুর", -10.025046018327348],
            ["▁হজ", -10.02555109297156],
            ["▁মুসলমানদের", -10.025902739391814],
            ["▁জাপান", -10.025929357988696],
            ["▁বিডি", -10.026106441977976],
            ["▁উপস্থিতি", -10.0261419432561],
            ["▁স্বার্থে", -10.02620270975413],
            ["▁হোটেলে", -10.026217812120212],
            ["▁উজ্জ্বল", -10.02630392888321],
            ["গান", -10.026935473108546],
            ["▁বাজারের", -10.02742093682398],
            ["▁বিজ্ঞাপন", -10.027645209395097],
            ["▁মুখ্যমন্ত্রী", -10.027706142495688],
            ["▁টেমপ্লেট", -10.028882276287758],
            ["বিদ", -10.029199597444723],
            ["▁ব্যবধানে", -10.02927935707354],
            ["▁যাচ্ছি", -10.02938242164511],
            ["▁কলকাতার", -10.02959750923814],
            ["▁মতবিনিময়", -10.030016994898215],
            ["▁আত্ম", -10.030204896328517],
            ["▁দুর্বল", -10.030372967493882],
            ["▁শীর্ষক", -10.030611413619154],
            ["▁বয়ে", -10.031001402034503],
            ["▁হেড", -10.031229109286055],
            ["▁ছা", -10.031624033845192],
            ["▁কিনতে", -10.032001190737756],
            ["▁পৃথিবী", -10.03286900524383],
            ["▁ভোগ", -10.03305956485828],
            ["▁আগ্রহী", -10.033366608233637],
            ["▁সো", -10.033732452310629],
            ["▁বানিয়ে", -10.03444301406311],
            ["▁মাস্টার", -10.034491327225588],
            ["ল্লা", -10.034510187008554],
            ["▁বিশেষজ্ঞ", -10.034587477174938],
            ["▁বাড়তি", -10.034721490603642],
            ["▁চিনি", -10.034973433216557],
            ["▁সন্ধান", -10.03503902236213],
            ["▁স্বামীর", -10.03522330447261],
            ["▁এরশাদ", -10.03529621671562],
            ["▁শু", -10.035346400181297],
            ["▁উল্লাহ", -10.035605700743218],
            ["হু", -10.036109376045731],
            ["▁ঘোষ", -10.036121609155757],
            ["▁আহবায়ক", -10.03637675835683],
            ["▁সত্যিই", -10.036459617607736],
            ["▁আস্থা", -10.036652508930644],
            ["▁চমৎকার", -10.037197653929423],
            ["কুল", -10.037457968330502],
            ["▁ফায়ার", -10.038190937493448],
            ["▁বীজ", -10.038281635808152],
            ["▁তৎকালীন", -10.03873935612001],
            ["▁বহন", -10.03895129680801],
            ["▁বাদী", -10.039515423019456],
            ["বড়", -10.039593692090229],
            ["▁প্রবল", -10.03991837985235],
            ["▁বিক্রয়", -10.040194668821584],
            ["▁আগামীকাল", -10.040266015856185],
            ["▁দেখলাম", -10.040785571822674],
            ["▁একথা", -10.041517866788451],
            ["▁শিক্ষকদের", -10.042031479151612],
            ["▁ভোর", -10.043020710506232],
            ["▁হয়ত", -10.043431523888708],
            ["▁সংবাদদাতা", -10.043626667324911],
            ["▁শান্ত", -10.04385293605507],
            ["ারি", -10.043976348688004],
            ["▁রাষ্ট্রের", -10.043981980455987],
            ["▁হ্যা", -10.044694731615506],
            ["▁ইউনিয়নে", -10.045215778631151],
            ["▁অন্তর্ভুক্ত", -10.04573497431048],
            ["▁হেরে", -10.047119374293027],
            ["▁মুখের", -10.047642420483845],
            ["▁পড়ুন", -10.04768236707884],
            ["য়ান", -10.047745464238655],
            ["▁প্যারামিটার", -10.048425314048531],
            ["▁সংযুক্ত", -10.048791912378324],
            ["▁জাতিসংঘ", -10.049024049595827],
            ["▁ব্লগ", -10.04918682793233],
            ["ch", -10.049434888633517],
            ["ভুক্ত", -10.04985499717031],
            ["▁প্রাক্তন", -10.050178787593229],
            ["▁উত্তোলন", -10.050275002308972],
            ["▁ক্যা", -10.051039366582424],
            ["ৃ", -10.051212726039603],
            ["▁তফসিল", -10.051519598244534],
            ["▁হোসাইন", -10.051603730340808],
            ["▁আস", -10.051629225210228],
            ["▁স্থানীয়রা", -10.052034073402256],
            ["▁বিনিময়", -10.052048319124774],
            ["▁বাংলাদেশকে", -10.052304947881744],
            ["▁পারছেন", -10.052352367014906],
            ["▁উত্তম", -10.052766839070442],
            ["▁যাবার", -10.052907374748942],
            ["▁যুদ্ধে", -10.053587087418098],
            ["▁ভয়ে", -10.05364275426814],
            ["▁বিনিময়ে", -10.053789251520952],
            ["▁নির্যাতনের", -10.05402807011484],
            ["▁কয়েকদিন", -10.05412727518689],
            ["▁ধর", -10.055284407701375],
            ["▁আপ", -10.055795105617236],
            ["▁পাট", -10.057320315727052],
            ["▁ভিটামিন", -10.057323687427472],
            ["▁ইনচার্জ", -10.057636643993234],
            ["▁বর্ণিত", -10.05774475081919],
            ["স্ব", -10.057912644818863],
            ["▁স্বার্থ", -10.05801147953776],
            ["▁নির্", -10.058045936493349],
            ["▁জাকির", -10.058047644002905],
            ["▁কমান্ডার", -10.05811709536389],
            ["িয়ান", -10.058740588999576],
            ["▁গেম", -10.058783553211832],
            ["▁সংলগ্ন", -10.058800083250883],
            ["ভাই", -10.059743350060918],
            ["▁bengali", -10.060025818819884],
            ["▁সংসদে", -10.060026687965657],
            ["▁শুটিং", -10.06030459409961],
            ["▁সপ্তাহের", -10.06046641558748],
            ["▁হ্যাঁ", -10.06066680811842],
            ["▁উদ্বোধনী", -10.06092805860818],
            ["▁অসহায়", -10.06104358353191],
            ["▁যথাযথ", -10.061101782344178],
            ["▁রঙের", -10.061349381900984],
            ["▁তামিম", -10.061568590238176],
            ["▁হাইকোর্ট", -10.061704805869716],
            ["▁উদাহরণ", -10.061879686671087],
            ["▁যৌনসঙ্গম", -10.06247655825815],
            ["th", -10.062575237189614],
            ["▁আলোচনার", -10.062995047290888],
            ["▁ধর্ষণের", -10.063253779912849],
            ["▁পুঁজিবাজারে", -10.06342482305362],
            ["▁পড়ল", -10.065015208196408],
            ["ঠ", -10.065764092381214],
            ["▁সিং", -10.066287613681224],
            ["▁গেলাম", -10.066658621798362],
            ["▁কমিউনিটি", -10.06751800660056],
            ["▁পরিবর্তে", -10.067795932954384],
            ["▁কপি", -10.067834300160625],
            ["▁সাহস", -10.06789953421692],
            ["▁ইসলামিক", -10.068496246487356],
            ["▁অবরোধ", -10.068531312744277],
            ["ন্দ", -10.068574944851798],
            ["▁দিয়েই", -10.069670040390031],
            ["▁আসছেন", -10.069957552229646],
            ["▁ক্ষোভ", -10.07104008514932],
            ["▁ব্যারিস্টার", -10.071638864977794],
            ["▁বইটি", -10.071901130183535],
            ["▁আবহাওয়া", -10.072164146562162],
            ["▁কান", -10.072183774765364],
            ["▁অনুভব", -10.072454017052308],
            ["কালীন", -10.072632710375188],
            ["▁আকর্ষণ", -10.073718784089252],
            ["▁চাকমা", -10.074741771017118],
            ["▁p", -10.075249802278146],
            ["▁ব্রাজিল", -10.075647062756346],
            ["▁বিদেশ", -10.075716044800055],
            ["িনী", -10.07625893762499],
            ["▁ঘোষণার", -10.077792335243936],
            ["▁is", -10.077874838736944],
            ["▁কর্মীদের", -10.07791749647364],
            ["▁বলছি", -10.078029763971776],
            ["পূর্ব", -10.078419922202633],
            ["▁ঘ", -10.07869508192631],
            ["es", -10.079166653237492],
            ["▁ভেসে", -10.079184456655996],
            ["▁সংঘর্ষ", -10.08028126083097],
            ["▁জন্মদিন", -10.080359505384784],
            ["বাড়ী", -10.080416761123631],
            ["▁ভাইয়ের", -10.081109115978732],
            ["▁দেশকে", -10.081320495939543],
            ["▁যুগে", -10.081404514855898],
            ["▁মীর", -10.082155722345563],
            ["▁অপারেশন", -10.08216643771464],
            ["▁টিকিট", -10.082186679204098],
            ["↑", -10.082479309778758],
            ["▁ইস্যু", -10.082529860355114],
            ["▁মেসি", -10.08292303803597],
            ["▁জেলে", -10.083346712451664],
            ["▁কুষ্টিয়া", -10.083566206122622],
            ["▁বিরোধ", -10.083632377889836],
            ["▁পল্লী", -10.084184597723514],
            ["▁যোগদান", -10.084608373180195],
            ["▁কাছাকাছি", -10.084991078407356],
            ["▁ফাইনাল", -10.085151093053792],
            ["▁কার্যালয়ের", -10.08589945756206],
            ["▁যাকে", -10.086172968828471],
            ["▁মুক্তিযুদ্ধ", -10.08671464407527],
            ["▁উপভোগ", -10.086780126683356],
            ["▁রঙ", -10.087771189259763],
            ["ا", -10.088691819658305],
            ["▁আয়াত", -10.0889516921586],
            ["▁অন্যদের", -10.08911527543468],
            ["id", -10.089272624382168],
            ["▁গলায়", -10.089394136336493],
            ["▁সুখ", -10.08971443721472],
            ["▁এসআই", -10.089820388733772],
            ["▁মানের", -10.089958669718696],
            ["▁অধিদপ্তরের", -10.09025922966472],
            ["ব্য", -10.09028678964347],
            ["▁পদত্যাগ", -10.090585298288158],
            ["▁রাজস্ব", -10.090834132311754],
            ["▁পদ্ধতিতে", -10.091150761600815],
            ["▁কাম", -10.09160015613386],
            ["ক্র", -10.091866840184588],
            ["▁মানবিক", -10.092598943564472],
            ["তেও", -10.092912500100168],
            ["▁সম্পর্কিত", -10.09294189228637],
            ["▁যুবলীগের", -10.092994615450124],
            ["▁মেয়েরা", -10.093205581109522],
            ["▁দক্ষতা", -10.093303366857963],
            ["▁দাগ", -10.09383474450604],
            ["▁নিচের", -10.093894411828376],
            ["▁বাড়াতে", -10.09390735817403],
            ["▁বিদ্যালয়ে", -10.094466564758624],
            ["▁প্রেসক্লাবের", -10.09451953790634],
            ["করা", -10.094534523432168],
            ["▁অনিয়ম", -10.094800839584382],
            ["▁ভোটের", -10.09531670589812],
            ["▁চাঁদ", -10.09537453083552],
            ["▁স্ত্রীর", -10.095389703006916],
            ["▁মেজর", -10.095611218498124],
            ["▁নেতাকর্মীরা", -10.0957620468957],
            ["▁টেলিভিশন", -10.095949889568114],
            ["▁রাশিয়ার", -10.09628074747078],
            ["▁মারাত্মক", -10.096685720901409],
            ["নোর", -10.096687931238725],
            ["দান", -10.096789509381802],
            ["▁একসময়", -10.097021810909029],
            ["▁কখন", -10.097062872954682],
            ["ম্ব", -10.097394142631106],
            ["▁যোগ্যতা", -10.09758746831325],
            ["▁পদ্মা", -10.097801693115878],
            ["▁অপ", -10.097815050019774],
            ["▁সিম", -10.098295868595846],
            ["▁জামাত", -10.099025146831003],
            ["▁b", -10.09923170757872],
            ["▁সুলতান", -10.10007548746257],
            ["▁হলুদ", -10.100761070207051],
            ["▁পাখি", -10.101060851091791],
            ["▁লন্ডন", -10.10124869810902],
            ["▁হস্তান্তর", -10.10130420416506],
            ["▁দিয়েছি", -10.101804550736327],
            ["▁ইতিহাসের", -10.10262632190706],
            ["▁অতঃপর", -10.102690456630215],
            ["▁মাই", -10.102786535735856],
            ["▁মোটরসাইকেল", -10.1028424835308],
            ["▁এলো", -10.103029396570545],
            ["▁সাইকেল", -10.103352025972942],
            ["দল", -10.103973333619347],
            ["▁বটে", -10.104274894681526],
            ["▁আবেগ", -10.10437465125752],
            ["ন্স", -10.10442500040616],
            ["▁প্রতিক্রিয়া", -10.10459684341935],
            ["▁ভাগ্য", -10.10471075926498],
            ["▁পরেই", -10.105426971776328],
            ["▁ধাক্কা", -10.105482222380278],
            ["কমপক্ষে", -10.105975464801883],
            ["▁হাদীস", -10.1060266860709],
            ["▁প্রেমের", -10.106253807512749],
            ["▁ওয়ার্ডের", -10.10643409203951],
            ["▁প্রাচীন", -10.10784390877985],
            ["▁সান", -10.108631002236535],
            ["▁ব্রিজ", -10.109077252108236],
            ["▁ওয়েস্ট", -10.109359947744789],
            ["▁আইনশৃঙ্খলা", -10.109419375753916],
            ["▁নির্মাতা", -10.109836654917562],
            ["▁কমিয়ে", -10.1105138852839],
            ["▁জানালেন", -10.111335859560612],
            ["▁ভর", -10.111480091564736],
            ["▁দর্শন", -10.111856280711947],
            ["লিন", -10.112622599024483],
            ["▁সাল্লাল্লাহু", -10.112676806697984],
            ["▁লাগানো", -10.113076607305166],
            ["▁জনতা", -10.113305786344078],
            ["▁তবু", -10.113395062333346],
            ["▁সংশোধন", -10.113616893554338],
            ["▁tits", -10.113864094577323],
            ["ঘাট", -10.114291462614943],
            ["▁মোল্লা", -10.114539345834569],
            ["▁পারছে", -10.114962516152543],
            ["▁আল্লাহ্", -10.11521694936984],
            ["▁ইলিশ", -10.115231688577891],
            ["▁চেহারা", -10.115391809482672],
            ["ম্প", -10.11617517308187],
            ["রিয়া", -10.1168560172266],
            ["▁করিয়া", -10.117192289509743],
            ["▁রিয়াল", -10.117259210254224],
            ["▁দুদক", -10.11730634687639],
            ["▁কুরআন", -10.11762881878184],
            ["▁সম্প্রদায়ের", -10.117839108329704],
            ["▁সভাপতিত্ব", -10.118810925760572],
            ["▁উপাচার্য", -10.119480819595482],
            ["▁ছেলের", -10.11974622560852],
            ["▁ভাষার", -10.119980376674391],
            ["▁বঞ্চিত", -10.120220012123267],
            ["ন্ট", -10.120434067524386],
            ["▁নিরপেক্ষ", -10.120984519980816],
            ["▁সম্ভবত", -10.121253272033748],
            ["▁যানবাহন", -10.121475488674085],
            ["▁মাননীয়", -10.121780970620142],
            ["an", -10.121996683868296],
            ["▁বাংলাদেশী", -10.12205224026261],
            ["▁ফেলতে", -10.12225326700814],
            ["ক্ষণ", -10.123193776776],
            ["or", -10.123289718637263],
            ["▁উঁচু", -10.123425638024385],
            ["তির", -10.123662797171564],
            ["▁রাজ্যে", -10.12381430010797],
            ["▁হৃদয়", -10.12411309211142],
            ["▁ওভার", -10.124229772461533],
            ["▁চাইতে", -10.124360999751993],
            ["▁ব্যাগ", -10.124556782470025],
            ["▁তবুও", -10.12525368267109],
            ["ta", -10.125424298515943],
            ["▁ব্যবসায়", -10.125896300469195],
            ["de", -10.126129580607929],
            ["▁মসজিদে", -10.127044279515983],
            ["নদীতে", -10.127428750151775],
            ["▁আসর", -10.127863564311754],
            ["▁রাজনীতিতে", -10.127881430368245],
            ["▁সামনের", -10.12820968517906],
            ["▁পড়েছেন", -10.128827508794808],
            ["▁ক্রিকেটার", -10.12910920530314],
            ["▁উদ্দীন", -10.129175153501391],
            ["▁চে", -10.129344260071916],
            ["et", -10.129635328272036],
            ["▁সোশ্যাল", -10.129773037625432],
            ["▁রাগ", -10.129877101368075],
            ["▁বাড়তে", -10.13092634489727],
            ["▁অর্থনীতি", -10.1314756846771],
            ["▁মৌলিক", -10.13153206435272],
            ["▁শে", -10.131553702031214],
            ["▁কারাদণ্ড", -10.132038555608029],
            ["j", -10.132578288825274],
            ["ck", -10.132682094841922],
            ["▁উঠছে", -10.13295240056901],
            ["ঞ্চ", -10.133360581491782],
            ["▁আপন", -10.133559177902043],
            ["তারা", -10.134066168491133],
            ["▁পাড়া", -10.135938047904062],
            ["▁ম্যাজিস্ট্রেট", -10.13618736745546],
            ["▁ক্ষমতাসীন", -10.136326388605676],
            ["▁আলাপ", -10.136434587966656],
            ["▁চাওয়া", -10.137565079957804],
            ["▁স্মার্টফোন", -10.138696797541328],
            ["▁লিগ", -10.138897317429633],
            ["▁দায়ে", -10.139035452599652],
            ["কারীদের", -10.139255436734576],
            ["▁সদ্য", -10.139623645031673],
            ["▁মদ", -10.13973193426201],
            ["▁খেলায়", -10.140077386147553],
            ["▁আবিষ্কার", -10.14025746229266],
            ["▁ঝিনাইদহ", -10.140630873702976],
            ["▁একদল", -10.14077416862157],
            ["▁প্রতিষ্ঠানে", -10.14097188477309],
            ["▁অস্তিত্ব", -10.141633246511796],
            ["▁নাজমুল", -10.141775533694382],
            ["▁শপথ", -10.141830092974883],
            ["▁অবসর", -10.141864750844723],
            ["▁পাঠক", -10.1419695941156],
            ["▁মান্নান", -10.143412383047322],
            ["▁জাহাজ", -10.143946183692282],
            ["▁ঢাকাঃ", -10.144086547376755],
            ["▁পররাষ্ট্র", -10.144206433056327],
            ["নাথ", -10.144795807162682],
            ["▁ক্ষমতার", -10.145038982761868],
            ["▁পরিশ্রম", -10.145321801895316],
            ["▁পঞ্চম", -10.145869740127834],
            ["▁বাবুল", -10.146074878859842],
            ["▁হো", -10.14658579114442],
            ["▁গু", -10.146681436546986],
            ["▁বিদেশী", -10.14715691285616],
            ["▁ডোনাল্ড", -10.147570176408532],
            ["▁রাষ্ট্রদূত", -10.147682297513647],
            ["▁পরিবেশন", -10.147756506689207],
            ["ঘর", -10.147841327353914],
            ["▁সংখ্যক", -10.148085720124593],
            ["▁অনুবাদ", -10.149425296077704],
            ["টোয়েন্টি", -10.149648728790948],
            ["<", -10.149742067671056],
            ["▁যন্ত্র", -10.150229508959372],
            ["▁নির্মাণের", -10.15024344097124],
            ["▁আইএস", -10.150288180231916],
            ["▁ভাবনা", -10.150306820882808],
            ["▁চরিত্রে", -10.15063118507305],
            ["জী", -10.150734113101665],
            ["▁সনদ", -10.151501989346327],
            ["▁অবস্থার", -10.151579126408796],
            ["▁ফোরাম", -10.151756389104785],
            ["▁রেজা", -10.151845782066747],
            ["▁সত্যতা", -10.15244418134218],
            ["▁ওকে", -10.153030339128188],
            ["▁পার্ক", -10.1533955162022],
            ["▁বিপদ", -10.154033482272483],
            ["▁গুন", -10.154113306896225],
            ["▁সম্ভাব্য", -10.1546113265434],
            ["▁সিনেমার", -10.155123098100924],
            ["▁জজ", -10.155253603909292],
            ["▁দাঁত", -10.15527807710406],
            ["জো", -10.155444040233816],
            ["▁অংশে", -10.156029278915211],
            ["▁দরিদ্র", -10.156065387547605],
            ["▁কলা", -10.15606862017496],
            ["মিন", -10.1577168391826],
            ["▁করছিল", -10.158330566212555],
            ["▁রেখেছেন", -10.158544386059893],
            ["▁হোম", -10.15856986571774],
            ["জনের", -10.159840712402376],
            ["▁কাহিনী", -10.160194104593524],
            ["▁যুদ্ধের", -10.16085969523552],
            ["▁প্রতিশ্রুতি", -10.16119807974081],
            ["▁পুরুষের", -10.16149813707315],
            ["▁উপযুক্ত", -10.162112077466665],
            ["▁চলা", -10.162579417846857],
            ["▁পত্রিকার", -10.16281884306825],
            ["▁রাসূলুল্লাহ", -10.162938872087334],
            ["▁প্যানেল", -10.163076591493066],
            ["▁পাবনা", -10.164287372376492],
            ["▁উঠল", -10.164315167301758],
            ["▁তাপমাত্রা", -10.164795038989666],
            ["▁বন্যা", -10.165226620661272],
            ["▁অধিদপ্তর", -10.165590168330125],
            ["ফুল", -10.16562083976118],
            ["▁কর্মচারী", -10.165961129576472],
            ["▁ড্র", -10.16617318652697],
            ["▁সমাপ্ত", -10.166174944321597],
            ["▁রুবেল", -10.166190027511565],
            ["▁অনুভূতি", -10.166313114439829],
            ["▁মিস", -10.16643648487732],
            ["▁পার্থক্য", -10.167578804360105],
            ["▁গন্ধ", -10.167662275054312],
            ["▁জনপ্রিয়তা", -10.167737482606618],
            ["গামী", -10.168687326783967],
            ["▁রুমে", -10.168718881680968],
            ["▁ব্লক", -10.168846161785124],
            ["▁বিশ্লেষণ", -10.168851573752509],
            ["▁দোষ", -10.169167648089989],
            ["▁দেখবেন", -10.16926975456302],
            ["▁প্রসঙ্গত", -10.171091822679651],
            ["ুল্লাহ", -10.171607143754317],
            ["▁প্রোগ্রাম", -10.171613564852498],
            ["▁বাঁধা", -10.1716224091318],
            ["▁প্রকাশ্যে", -10.172027092944797],
            ["দ্য", -10.172116610082442],
            ["▁উৎসাহ", -10.172646570786828],
            ["▁বৌদ্ধ", -10.173407457046013],
            ["▁নিরাপত্তার", -10.17359934906954],
            ["▁ব্যক্তিকে", -10.17380663615718],
            ["▁কামরুল", -10.174268571184616],
            ["▁ডাল", -10.174588503152869],
            ["▁সাহা", -10.174747411493112],
            ["হ্", -10.174882042646033],
            ["▁নেত্রী", -10.175159031710958],
            ["▁কর্মসূচির", -10.175283079806574],
            ["▁দক্ষ", -10.175553421137494],
            ["▁মসজিদের", -10.175720869465716],
            ["▁আত্মহত্যা", -10.176424158201051],
            ["▁আয়ের", -10.176768234576896],
            ["▁ট্রাম্পের", -10.177150861545924],
            ["থি", -10.17817101419905],
            ["▁মানিক", -10.178640134264612],
            ["▁পেরিয়ে", -10.17866597947705],
            ["▁শাকিব", -10.178711276920083],
            ["▁দুইজন", -10.178861076848602],
            ["▁সঙ্গী", -10.17928735387473],
            ["▁এলাকাবাসী", -10.17982768238836],
            ["▁তাও", -10.179920512930009],
            ["▁ইনিংস", -10.180009954035157],
            ["পুরে", -10.180442534348945],
            ["sh", -10.181049567473767],
            ["▁প্রতিযোগিতায়", -10.181096472850104],
            ["▁পক্ষের", -10.181658885459246],
            ["▁বাংলায়", -10.181773657440354],
            ["▁ধন", -10.18291933824438],
            ["▁শ্রেণীর", -10.183230073223914],
            ["▁আব্দুল্লাহ", -10.183348511743434],
            ["▁ডট", -10.183755165373483],
            ["▁ভাষণ", -10.18426644192524],
            ["▁আসি", -10.184407579391284],
            ["▁ওপরে", -10.184430465289608],
            ["▁ভিসা", -10.184543337531382],
            ["▁সফলতা", -10.185112134061942],
            ["▁প্রকাশের", -10.185368021677476],
            ["se", -10.185739595362506],
            ["▁উইকেটে", -10.186077696052593],
            ["▁চিকিৎসাধীন", -10.186527575059287],
            ["▁করতো", -10.187438436845165],
            ["▁মোটে", -10.187909972347578],
            ["▁দাশ", -10.188162499413275],
            ["্ট", -10.188255917606568],
            ["▁কর্পোরেশন", -10.188447458270556],
            ["▁আমল", -10.189058930411258],
            ["▁প্রার্থনা", -10.189184062111735],
            ["▁দিবে", -10.189215091582076],
            ["▁সমন্বয়", -10.189227597859231],
            ["▁ফিচার", -10.189488553620976],
            ["▁সভার", -10.18984594425146],
            ["▁শিরোপা", -10.189973376106012],
            ["▁ফির", -10.19014196004558],
            ["▁আরিফ", -10.19052205294387],
            ["▁পরাজিত", -10.190584191016072],
            ["▁অভিভাবক", -10.190738140844616],
            ["▁বিস্তার", -10.19122635751286],
            ["▁সেজন্য", -10.192191581182897],
            ["র্ত", -10.192975453444276],
            ["শত", -10.19332508610372],
            ["স্তা", -10.19380971197086],
            ["▁প্রযুক্তির", -10.19381331386483],
            ["▁ছায়া", -10.194085886799844],
            ["▁ইংল্যান্ড", -10.19422720472598],
            ["িস্ট", -10.194392462520812],
            ["▁পেয়েছি", -10.194975277568814],
            ["▁কোরিয়ার", -10.19529449283382],
            ["▁ঐতিহ্য", -10.19579168728504],
            ["▁পারব", -10.195848456056236],
            ["▁গবেষণায়", -10.196126578743794],
            ["▁মারধর", -10.196572525504823],
            ["আমাদের", -10.19674373865784],
            ["▁নিশ্চয়ই", -10.196758901939871],
            ["▁বইয়ের", -10.19698020650285],
            ["▁ত্রাণ", -10.197826408584302],
            ["টেক", -10.197904121692307],
            ["▁উনার", -10.197934453704535],
            ["▁ক্যাম্প", -10.198041164638497],
            ["▁ইট", -10.198190282931863],
            ["▁রোগী", -10.198311480469728],
            ["▁মাটির", -10.198400162742985],
            ["▁নাসির", -10.198470405350042],
            ["▁ঘটা", -10.19885781140504],
            ["▁সেটাই", -10.199095285161269],
            ["▁স্বল্প", -10.199120429127657],
            ["▁কোরআন", -10.199171426327046],
            ["▁অ্যাকাউন্ট", -10.19933909410267],
            ["▁পাচ্ছেন", -10.199512936271576],
            ["▁একদম", -10.199731116540168],
            ["▁গুলশান", -10.200249523541258],
            ["▁টের", -10.201463211741087],
            ["▁মোড়", -10.202953949393091],
            ["▁সমঝোতা", -10.204165409923696],
            ["▁চেপে", -10.204175004828723],
            ["▁ওয়ান", -10.204494084255096],
            ["▁সিদ্দিকী", -10.20465141312403],
            ["ণ্ড", -10.204657814112108],
            ["▁সাতক্ষীরা", -10.204733025846547],
            ["▁নীতিমালা", -10.205513380943172],
            ["▁বিবিসি", -10.206016810266496],
            ["▁জনক", -10.206080978229451],
            ["▁আধা", -10.206488762378356],
            ["it", -10.206990121193895],
            ["▁রহস্য", -10.20715011081767],
            ["▁বন্দ্যোপাধ্যায়", -10.2072964992812],
            ["আজ", -10.207473741405796],
            ["▁দেশীয়", -10.207963716924084],
            ["বিহীন", -10.207969419326544],
            ["▁শুল্ক", -10.20916911564229],
            ["▁করানো", -10.209778267076132],
            ["▁যাওয়ায়", -10.210211085759203],
            ["▁পাপ", -10.210354921835762],
            ["▁হাজী", -10.210441684513867],
            ["▁উঠবে", -10.210710934417616],
            ["▁ভারী", -10.210737219279856],
            ["েন্ট", -10.210876597175876],
            ["▁জ্বালানি", -10.21089043374314],
            ["▁ইয়া", -10.21093373844197],
            ["ান্ত", -10.210991592084852],
            ["▁বন্ধুদের", -10.211327244824364],
            ["▁মাছের", -10.211671309134609],
            ["▁গিয়েছিলেন", -10.21178264262954],
            ["▁বিমানবন্দর", -10.212711168940691],
            ["▁পরিবর্তনের", -10.212711304292888],
            ["▁পরিবেশে", -10.213009707833487],
            ["▁বিদ্যমান", -10.213540200533313],
            ["▁তোলে", -10.21375657690406],
            ["▁লিমিটেডের", -10.21462180115931],
            ["▁শিব", -10.21570760279631],
            ["▁স্বর্ণ", -10.215723930131722],
            ["▁লু", -10.215842569209222],
            ["▁প্রদানের", -10.21604080632399],
            ["▁আসুন", -10.216451980955569],
            ["▁হাওয়া", -10.21747956730842],
            ["▁আকার", -10.218428397965695],
            ["▁জিয়াউর", -10.218500250759313],
            ["▁ভোরে", -10.219134863203374],
            ["বদ্ধ", -10.21973940797328],
            ["দ্র", -10.219762172577523],
            ["ায়ন", -10.22144228131772],
            ["▁বৈধ", -10.222212642063909],
            ["▁খামার", -10.223095217754295],
            ["▁অশ্লীল", -10.223327773416484],
            ["▁জরুরী", -10.223400162673345],
            ["কর্মী", -10.223679140321217],
            ["▁অভি", -10.223796266224234],
            ["▁এফ", -10.225123733067193],
            ["▁প্রকৃতি", -10.225654303512746],
            ["▁হাস", -10.225882151422685],
            ["▁জমে", -10.226404801318672],
            ["▁লড়াইয়ে", -10.226556467985809],
            ["la", -10.227097315295628],
            ["bd", -10.22729260230804],
            ["▁ফে", -10.227846863670532],
            ["ক্", -10.228140448193722],
            ["▁ডিভাইস", -10.228220531544938],
            ["▁রুম", -10.228357856552332],
            ["▁রমজান", -10.22837374136942],
            ["▁নেতৃত্বাধীন", -10.228423519661362],
            ["▁আব্দুস", -10.228667244595094],
            ["▁যানজট", -10.228748183796537],
            ["▁অফার", -10.229009958540788],
            ["▁যুবলীগ", -10.229174279706918],
            ["▁স্যাটেলাইট", -10.229193195829083],
            ["▁পায়ের", -10.22932533284128],
            ["▁সাজানো", -10.229601945284598],
            ["দুর", -10.229814410156257],
            ["হান", -10.229854966715578],
            ["▁ধারায়", -10.230201905369672],
            ["টিক", -10.230976102001645],
            ["▁m", -10.231140617230327],
            ["▁সমগ্র", -10.231276047352145],
            ["▁মেডিক্যাল", -10.231449844183688],
            ["▁সাংসদ", -10.2317675689291],
            ["▁গুরু", -10.232109768445232],
            ["▁প্রতিষ্ঠার", -10.23263851807449],
            ["▁ফাউন্ডেশন", -10.23272439348603],
            ["▁ভাত", -10.232867453599596],
            ["▁যোগ্য", -10.232965357877708],
            ["▁মঙ্গল", -10.233205310129918],
            ["▁ঠিকানা", -10.233228711227085],
            ["▁সেট", -10.23360134965032],
            ["▁চিৎকার", -10.23419985179608],
            ["▁উপকরণ", -10.234688489647583],
            ["গী", -10.234720763240611],
            ["জিয়াকে", -10.234831520515025],
            ["▁সামগ্রী", -10.23496611741802],
            ["▁বিচ্ছিন্ন", -10.235037527118005],
            ["▁সার্চ", -10.23517352347534],
            ["▁বাছাই", -10.235313472141618],
            ["▁co", -10.23534997183764],
            ["▁ইসি", -10.23568225533851],
            ["▁কমেছ", -10.235764441668],
            ["▁প্রাণী", -10.236052474328286],
            ["▁অন্ধকার", -10.23619412688886],
            ["▁ভগ", -10.236200895658902],
            ["▁ব্যবসায়ীরা", -10.236218288329594],
            ["▁অনন্য", -10.236516082032352],
            ["▁ওয়াসাল্লাম", -10.23688597323422],
            ["▁অত", -10.236890838161326],
            ["▁কৃষ্ণ", -10.237288265063016],
            ["▁বিচারের", -10.237386090760308],
            ["▁রেজাউল", -10.237671121220956],
            ["▁রোগের", -10.238096959786098],
            ["▁যেকোন", -10.238278396434357],
            ["▁মজুমদার", -10.238957473994246],
            ["▁পাঁচটি", -10.239237617381054],
            ["▁আসরে", -10.239403023866132],
            ["▁গানটি", -10.24056544019568],
            ["▁ইতিবাচক", -10.240629664276906],
            ["▁গণমাধ্যম", -10.240748115765347],
            ["▁রপ্তানি", -10.241152686139126],
            ["▁অভাবে", -10.241330654577176],
            ["▁চট্টগ্রামে", -10.24152800915152],
            ["▁মাথার", -10.242051102954672],
            ["▁সৃষ্টির", -10.242272423713969],
            ["▁মেয়েকে", -10.242350181824024],
            ["▁দিনটি", -10.242562504048724],
            ["▁প্রভাবশালী", -10.243223898356018],
            ["লেও", -10.243858437487656],
            ["▁blog", -10.243947756027673],
            ["▁ব্যবসায়ীদের", -10.244042936394482],
            ["▁বক্তারা", -10.244292383861398],
            ["▁শীত", -10.244311412981684],
            ["▁নৌ", -10.244386018804638],
            ["▁হাকিম", -10.244746904739008],
            ["ভো", -10.246018649429866],
            ["▁অর্ধেক", -10.247161460470757],
            ["▁নেটওয়ার্ক", -10.247275686458783],
            ["বছর", -10.24754151005711],
            ["▁মঞ্চে", -10.247546981223543],
            ["▁মধু", -10.247790989699093],
            ["▁মেম্বার", -10.247915567993322],
            ["▁মোটা", -10.248155505510244],
            ["▁হতাশা", -10.248507959996257],
            ["▁ছাত্রদলের", -10.248507979561936],
            ["▁বাসের", -10.248612510986057],
            ["▁ভরে", -10.248628866162676],
            ["দিকে", -10.24898879248878],
            ["বৃন্দ", -10.249891068968331],
            ["▁পাল্টা", -10.24993270781344],
            ["▁ট্রাফিক", -10.25010372522356],
            ["▁আলোর", -10.250538054827798],
            ["▁জু", -10.250625488460226],
            ["ন্ন", -10.250970471453968],
            ["▁অস্ট্রেলিয়া", -10.251086089318235],
            ["▁অত্যাচার", -10.251306736023636],
            ["▁জব্দ", -10.251338153752572],
            ["দিনব্যাপী", -10.251462097764737],
            ["▁হুদা", -10.251681706323284],
            ["বাবু", -10.25177131398183],
            ["ধু", -10.252203762793702],
            ["▁কাঁচা", -10.252569139471207],
            ["▁কাউন্সিল", -10.252676033478206],
            ["▁প্রণয়ন", -10.253743383214228],
            ["▁নওগাঁ", -10.25435844661182],
            ["▁ফ্রান্স", -10.255667011500174],
            ["ter", -10.255696818354714],
            ["▁দুর্নীতির", -10.255739225738802],
            ["▁ব্যাপারটা", -10.255892505214096],
            ["▁প্যা", -10.256513935022094],
            ["আবারো", -10.256719012525576],
            ["খানা", -10.256814023139285],
            ["▁সেন", -10.256820975055003],
            ["▁দশকে", -10.25690312440028],
            ["▁আলি", -10.25694305878712],
            ["ওয়ার", -10.2570029839785],
            ["▁নামিয়ে", -10.257014424348672],
            ["▁শেরপুর", -10.257104118785051],
            ["▁বাড়ানো", -10.257179359751744],
            ["▁মোশাররফ", -10.257230287789769],
            ["▁অবস্থানে", -10.257849963061696],
            ["▁ফিল্ম", -10.258417326604642],
            ["▁চালাতে", -10.258461884824108],
            ["কথা", -10.259970577354247],
            ["▁জার্মান", -10.260168001532795],
            ["ঢাকা", -10.260187935848991],
            ["▁দত্ত", -10.260440900722196],
            ["▁রাখবেন", -10.260448460017138],
            ["▁প্রচারণা", -10.26095110050832],
            ["স্টার", -10.260968560843654],
            ["▁পিস", -10.261010496187511],
            ["▁ফু", -10.261500041655244],
            ["▁মাহফিল", -10.261842952179787],
            ["▁বিমানবন্দরে", -10.262417611925892],
            ["▁সীমান্তে", -10.26255335552648],
            ["▁চির", -10.262566173482425],
            ["▁পারছি", -10.262682986426656],
            ["▁নেপাল", -10.262710641969894],
            ["▁আসাদুজ্জামান", -10.262845051052896],
            ["ধা", -10.262884706479271],
            ["বিষয়ক", -10.262963189461653],
            ["▁ছাড়িয়ে", -10.263054571886927],
            ["▁পৌরসভা", -10.263234568372498],
            ["▁ব্যক্তিদের", -10.26334721964792],
            ["▁কোম্পানিটির", -10.263351519015972],
            ["▁থাকুন", -10.263562895977362],
            ["▁সংরক্ষিত", -10.264208668713833],
            ["▁ব্যক্তিত্ব", -10.26482202930642],
            ["▁ঈদুল", -10.265017881244692],
            ["ফ্র", -10.26558693121693],
            ["▁অপরদিকে", -10.266856802884345],
            ["▁আগ", -10.266976536337884],
            ["▁আরবের", -10.267114510978184],
            ["▁রাজ্জাক", -10.26722162830128],
            ["▁প্রো", -10.267451163955595],
            ["র্ন", -10.267606306971484],
            ["▁আকবর", -10.267941322743864],
            ["▁দ্বীপ", -10.267948811320146],
            ["বাসী", -10.26800885371686],
            ["▁মহাপরিচালক", -10.26812612918488],
            ["▁পয়েন্টে", -10.268273037832998],
            ["রকম", -10.268789067413016],
            ["সমূহের", -10.268921366234432],
            ["▁চাপা", -10.26899774597114],
            ["▁আবেদনের", -10.269102161431372],
            ["▁নিন্দা", -10.269230842005058],
            ["মাস", -10.269454171838042],
            ["▁রিপোর্টঃ", -10.270782795833249],
            ["▁পেশা", -10.270807200411507],
            ["▁বাড়বে", -10.270819886174316],
            ["▁ব্যাটসম্যান", -10.271191768921415],
            ["▁আবাসিক", -10.27140480914114],
            ["el", -10.271819954352589],
            ["▁চামড়া", -10.272003497803643],
            ["▁দুর্যোগ", -10.272028135051222],
            ["▁কাজটি", -10.272064273173108],
            ["▁অদ্ভুত", -10.272112562748925],
            ["লাল", -10.272505547168045],
            ["on", -10.272611173364991],
            ["▁প্রমাণিত", -10.273014397186174],
            ["▁লোকের", -10.273374501942794],
            ["▁ইনিংসে", -10.273672648715957],
            ["▁জটিল", -10.274298984272225],
            ["▁ডুবে", -10.27460353961316],
            ["▁বক্স", -10.274631093187528],
            ["▁নরেন্দ্র", -10.275999784908082],
            ["▁প্রায়ই", -10.27626020184082],
            ["▁শাহজাহান", -10.2764514117257],
            ["▁রোজা", -10.27649375512265],
            ["লেই", -10.276725562671023],
            ["▁কর্মীরা", -10.277392985562305],
            ["▁অনি", -10.277558629055452],
            ["▁অভ্যাস", -10.277873637037604],
            ["▁পুকুর", -10.277935106005929],
            ["▁খবরে", -10.278264641751552],
            ["▁মনোনীত", -10.27859992795608],
            ["▁গ্রন্থ", -10.278951775552596],
            ["na", -10.279833371926085],
            ["এফ", -10.28021230127814],
            ["▁ঘণ্টার", -10.280393058172743],
            ["▁ভিতর", -10.280434451660822],
            ["▁ইঞ্চি", -10.280548505346069],
            ["▁লাগল", -10.28101651202063],
            ["▁মুখপাত্র", -10.28119809140271],
            ["▁অভিষেক", -10.281315966644552],
            ["ানী", -10.281642358955148],
            ["▁নাচ", -10.281679190533096],
            ["▁দাও", -10.282546628101192],
            ["▁প্রতিপক্ষ", -10.282704467222988],
            ["te", -10.282759558806507],
            ["▁ঘটনাস্থল", -10.283034086225085],
            ["▁পাকিস্তানি", -10.283732687761775],
            ["▁টুয়েন্টিফোর", -10.283746211506086],
            ["ধি", -10.283785266036809],
            ["▁জোন", -10.283819922871151],
            ["ly", -10.284372369005746],
            ["▁রিট", -10.284944002372386],
            ["▁আবদুর", -10.285340927896526],
            ["▁মাদরাসা", -10.285700042050546],
            ["▁অসম্ভব", -10.286135766637823],
            ["▁টেস্টে", -10.286200440923936],
            ["▁ভ্যান", -10.286237249687614],
            ["▁বস্তু", -10.286399825491008],
            ["▁পাকা", -10.286416604416088],
            ["▁se", -10.286583080528963],
            ["▁ইঞ্জিন", -10.287624732863062],
            ["▁শট", -10.287914989420765],
            ["▁ওমর", -10.28795006645825],
            ["চীনের", -10.288410525868146],
            ["▁অগ্রগতি", -10.28871897277277],
            ["▁ওয়ার্ল্ড", -10.288840371317391],
            ["▁পর্যাপ্ত", -10.288890178964223],
            ["▁পরিসংখ্যান", -10.28915746503252],
            ["to", -10.289177262641063],
            ["▁বাণিজ্যিক", -10.28952385217864],
            ["▁সিএনজি", -10.289608738781205],
            ["▁রোজ", -10.290237005142446],
            ["▁পরিস্থিতিতে", -10.290517309107392],
            ["▁লবণ", -10.291499181876976],
            ["▁be", -10.291650451889664],
            ["অব", -10.291754570728177],
            ["▁এড", -10.292059951063257],
            ["▁আপত্তি", -10.292471644749035],
            ["▁সূচক", -10.292686876071617],
            ["কর্ম", -10.293392722595408],
            ["▁লিংক", -10.294007698121874],
            ["▁ইউনিভার্সিটি", -10.294112588251052],
            ["▁প্রতিবেশী", -10.294192364766449],
            ["▁বো", -10.294388718548811],
            ["▁ক্যান্সার", -10.29493048269703],
            ["▁হইতে", -10.294971517596432],
            ["▁মহাসড়কের", -10.29546059932349],
            ["▁এইসব", -10.29549851658376],
            ["োয়া", -10.295510444253896],
            ["▁খোকন", -10.295615153669496],
            ["জির", -10.296001630017392],
            ["▁হলেই", -10.296649623680487],
            ["িংয়ের", -10.296869042011773],
            ["▁ঘাটতি", -10.296984704160067],
            ["▁পছন্দের", -10.297135994004549],
            ["▁সোয়া", -10.297248989441432],
            ["▁নেবেন", -10.297463548200184],
            ["▁উদ্বেগ", -10.297478611293418],
            ["▁সম্পর্কের", -10.297693781430342],
            ["▁মজার", -10.29807858185704],
            ["▁করছিলেন", -10.298187130533597],
            ["▁দাঁড়ায়", -10.298188887742064],
            ["▁গ্রাহক", -10.298812063500376],
            ["▁কল্পনা", -10.298835453130977],
            ["ফার", -10.299020797005117],
            ["▁ইবনু", -10.299233341023468],
            ["▁পেঁয়াজ", -10.29931191268754],
            ["▁করেছিলাম", -10.299316051050402],
            ["▁উন্মুক্ত", -10.299473709247836],
            ["▁পর্ষদ", -10.299529952711742],
            ["▁বউ", -10.299549941976576],
            ["জাত", -10.29955848380855],
            ["▁পড়াশোনা", -10.300233837798588],
            ["▁প্রতিনিয়ত", -10.300548353227049],
            ["ানোর", -10.301082874041766],
            ["নিয়া", -10.301088377654738],
            ["▁বাসে", -10.301387818403091],
            ["▁এয়ার", -10.30146346649506],
            ["▁জাহান", -10.301981108377792],
            ["দফায়", -10.30211996168642],
            ["▁সংবর্ধনা", -10.302163457905769],
            ["▁চারজন", -10.302285407339037],
            ["সময়", -10.302750917528993],
            ["▁মেলায়", -10.3040454049595],
            ["দুল", -10.304367619905088],
            ["দ্ধ", -10.3045469073219],
            ["▁প্রার্থীদের", -10.305364166784717],
            ["▁সেবার", -10.30586360020221],
            ["▁মায়া", -10.306029312368032],
            ["▁ফ্লাইট", -10.30603503599326],
            ["▁ইঙ্গিত", -10.306272265407683],
            ["▁দশক", -10.307009733354786],
            ["▁ভীষণ", -10.308108011083156],
            ["▁থেমে", -10.308329825869858],
            ["▁নানান", -10.308799447905216],
            ["পতি", -10.308812959546962],
            ["▁দিল্লি", -10.309065976355605],
            ["▁ভবিষ্যৎ", -10.309793830962102],
            ["▁প্রতিরক্ষা", -10.310195114110284],
            ["▁রোগীর", -10.310526622115049],
            ["▁পরিস্থিতির", -10.31053569564297],
            ["▁রেলওয়ে", -10.310768918383244],
            ["▁নায়িকা", -10.310772784448908],
            ["▁ক্যারিয়ার", -10.310772943554024],
            ["▁বিবেচনায়", -10.31077396062486],
            ["▁ফরিদপুর", -10.311288373351427],
            ["▁সহযোগিতায়", -10.311519267450072],
            ["▁রফিক", -10.311685751404347],
            ["▁দায়িত্বে", -10.312170181273588],
            ["জনিত", -10.312171134381208],
            ["▁বলেছি", -10.312197170553205],
            ["▁দেখাতে", -10.31284619963154],
            ["▁মিত্র", -10.3134677899215],
            ["▁যাচ্ছিল", -10.313621347988889],
            ["▁উল্টো", -10.31404182368863],
            ["আপ", -10.314409390007109],
            ["▁মঞ্জুর", -10.314577498842349],
            ["পররাষ্ট্রমন্ত্রী", -10.314631087415416],
            ["▁সাফ", -10.314937036732482],
            ["▁পো", -10.31525117563836],
            ["▁অটো", -10.315499445200812],
            ["▁মানুষদের", -10.315978857499026],
            ["▁ব্যাংকিং", -10.316511159802426],
            ["▁মজা", -10.316513779353908],
            ["▁কানাডা", -10.317039752932647],
            ["▁গাজী", -10.317242126874149],
            ["▁আড়াই", -10.31751354259599],
            ["▁ফুটবলার", -10.317746202772776],
            ["▁শ্রেণী", -10.317961691753109],
            ["▁শুয়ে", -10.318069160767852],
            ["▁যাব", -10.318148236396553],
            ["▁অতিক্রম", -10.318200972508768],
            ["▁শীর্ষে", -10.318445345262482],
            ["ic", -10.318611300412377],
            ["দো", -10.31972879340326],
            ["▁মাশরাফি", -10.319980958875128],
            ["▁বাড়ানোর", -10.320071580674504],
            ["ফল", -10.320596075653231],
            ["▁সূচনা", -10.320987812756671],
            ["▁এড়িয়ে", -10.321315379708174],
            ["▁রাখবে", -10.321371714289556],
            ["▁খাত", -10.321410602562858],
            ["▁উঠা", -10.32216288332526],
            ["▁বললো", -10.322231916990871],
            ["▁এসএসসি", -10.322545000789976],
            ["ي", -10.323300486122264],
            ["▁প্রজন্মের", -10.32348333912372],
            ["▁আকারে", -10.323578483873815],
            ["▁শাড়ি", -10.323685695214198],
            ["জের", -10.323872417158595],
            ["ro", -10.324129403119432],
            ["▁নেইমার", -10.324312441445429],
            ["▁দয়া", -10.32514437422501],
            ["▁শাহজালাল", -10.325560856318384],
            ["▁কক্সবাজারের", -10.325574113267455],
            ["▁অপেক্ষায়", -10.325969496880385],
            ["াইন", -10.32636776082024],
            ["▁স্তন", -10.326426478901531],
            ["▁আশ্বাস", -10.326433963578705],
            ["▁প্রবণতা", -10.326646626235108],
            ["▁অ্যাড", -10.327095639931391],
            ["▁লঞ্চ", -10.32719142786216],
            ["ডো", -10.327910294065225],
            ["চ্ছ", -10.32810328859198],
            ["▁ভাতা", -10.329017299167631],
            ["▁বাস্তবায়নের", -10.32938924383534],
            ["▁চক্র", -10.330207033188962],
            ["তুল", -10.330447843072628],
            ["▁পাঠানোর", -10.330991032572982],
            ["▁আরোপ", -10.331318242889022],
            ["▁সম্পত্তি", -10.331341471983963],
            ["বাজ", -10.33145627281143],
            ["▁পরিমাণে", -10.3317901895615],
            ["▁মহিলাদের", -10.33208605000484],
            ["▁এমনই", -10.33227707430484],
            ["▁আকর্ষণীয়", -10.33260386466078],
            ["▁কেনার", -10.33304434120995],
            ["▁সম্প্রসারণ", -10.333132823949809],
            ["▁এসেছি", -10.33317948019051],
            ["▁হারুন", -10.333200377906309],
            ["▁ব্যক্ত", -10.333833826328618],
            ["▁বেঞ্চ", -10.334276672619332],
            ["▁হয়েছি", -10.33431488912971],
            ["▁আবদুল্লাহ", -10.334707302262649],
            ["শান", -10.335113753648278],
            ["▁পেশ", -10.335995024816624],
            ["▁ধরেন", -10.336041170703297],
            ["▁বৃদ্ধ", -10.337662574162795],
            ["▁সিংহ", -10.33810737704359],
            ["▁রিজভী", -10.338672844896648],
            ["▁চর্চা", -10.339162926058512],
            ["▁নকশা", -10.33937012455426],
            ["▁তুলনা", -10.340410617899757],
            ["▁জামায়াতের", -10.340471095027825],
            ["▁বিজ্ঞপ্তিতে", -10.34105419173684],
            ["কাম", -10.341320661662332],
            ["▁আইডি", -10.34166955918302],
            ["াইল", -10.341829243224756],
            ["▁আপাতত", -10.342003623606615],
            ["▁মনির", -10.34210741607142],
            ["▁মেধা", -10.3425965599854],
            ["▁সুনামগঞ্জ", -10.343381311591122],
            ["▁করলেই", -10.343561820045275],
            ["▁ভক্ত", -10.343772357528616],
            ["াঙ্গ", -10.344177288574556],
            ["▁কাঠামো", -10.344387488153286],
            ["▁আগমন", -10.344555718788172],
            ["▁জঙ্গিবাদ", -10.344690703873338],
            ["ce", -10.344804123541962],
            ["▁অস্ট্রেলিয়ার", -10.345216822016262],
            ["▁বুঝি", -10.345269996984795],
            ["▁মুভি", -10.345334624676765],
            ["▁এভাবেই", -10.345569911449898],
            ["▁ঐক্যফ্রন্ট", -10.34563493777576],
            ["ল্যান্ড", -10.346399477206258],
            ["▁ঠান্ডা", -10.346444913189709],
            ["▁চার্জ", -10.346733209025874],
            ["▁নিযুক্ত", -10.346976180574863],
            ["▁খাল", -10.347262809315756],
            ["▁বৃষ্টির", -10.347295433380962],
            ["▁ঝামেলা", -10.347389739723576],
            ["▁পদক", -10.34742518584471],
            ["▁ওসমান", -10.347672203993383],
            ["▁নারীরা", -10.348332772762646],
            ["পাড়ায়", -10.348490914075857],
            ["▁অবাধ", -10.348510246419588],
            ["▁টান", -10.349138723930794],
            ["▁এডভোকেট", -10.349210701110168],
            ["▁সুলতানা", -10.349455828996058],
            ["▁চকরিয়া", -10.34953894787176],
            ["▁নবীগঞ্জ", -10.349574129439254],
            ["▁সেল", -10.35030515125116],
            ["▁অপু", -10.35036595318605],
            ["▁মেধাবী", -10.350536043877074],
            ["▁জানার", -10.350711292903224],
            ["লেট", -10.352401186343885],
            ["▁শ্রেণি", -10.352476350052196],
            ["▁ল্যাপটপ", -10.353511908055824],
            ["▁পড়", -10.35365474606987],
            ["ডার", -10.354089633587812],
            ["▁রোগে", -10.354406275172057],
            ["▁কিশোরগঞ্জ", -10.354529674692406],
            ["▁প্রচেষ্টা", -10.354613046508174],
            ["মেন", -10.354668299688178],
            ["▁মরহুম", -10.355385695019075],
            ["▁নেতার", -10.355826308883811],
            ["▁ধানের", -10.355928972511094],
            ["▁সাক্ষাৎ", -10.356151329285014],
            ["ভূমি", -10.356171929675966],
            ["কাত", -10.356569366775984],
            ["▁হ্রাস", -10.357211539022254],
            ["শক্তি", -10.357448034951998],
            ["▁হরতাল", -10.357491496961543],
            ["▁সচেতনতা", -10.357559327673396],
            ["▁ঠাকুর", -10.358116300284664],
            ["▁বোতল", -10.358157391585223],
            ["▁সৎ", -10.35848976384161],
            ["ir", -10.35925946162374],
            ["িয়", -10.359689719958787],
            ["ট্র", -10.360205394446304],
            ["▁পর্যবেক্ষণ", -10.36026097199099],
            ["▁হাবিব", -10.361707594636067],
            ["▁রাখ", -10.361874108137489],
            ["▁পাচার", -10.362095004459118],
            ["কান", -10.362152942358104],
            ["▁হার্ট", -10.362236817519925],
            ["▁হাল", -10.36225817497083],
            ["▁আশরাফ", -10.362434017407756],
            ["▁ইউসুফ", -10.36257088081973],
            ["▁পতন", -10.362593328930505],
            ["▁মিনিটের", -10.362762430756865],
            ["ষা", -10.362836921808588],
            ["▁পরদিন", -10.362930578661633],
            ["▁সাহায্যে", -10.363568101157089],
            ["▁mo", -10.364016558511162],
            ["দিয়া", -10.364154777063494],
            ["▁ভে", -10.364320634958135],
            ["রাত", -10.365451656937836],
            ["ঝ", -10.365872823924173],
            ["▁জিজ্ঞাসা", -10.366146868196978],
            ["▁sa", -10.366182037827915],
            ["ল্ড", -10.366702939587814],
            ["▁সাঈদ", -10.367102013816949],
            ["▁সেঞ্চুরি", -10.367461382300704],
            ["▁যাতায়াত", -10.36829638086119],
            ["▁সিভিল", -10.368480633821545],
            ["র্ক", -10.368793294617642],
            ["▁দিয়া", -10.36880398040378],
            ["▁সিরিজে", -10.369970377533326],
            ["▁জোড়া", -10.369981995465478],
            ["▁নোটিশ", -10.37165950146423],
            ["▁আনুষ্ঠানিক", -10.371779468513331],
            ["▁গবেষক", -10.371795385737936],
            ["▁কবে", -10.373473634032154],
            ["▁কার্য", -10.37356961616257],
            ["▁চেম্বার", -10.373574701624385],
            ["▁লাইফ", -10.3739293544344],
            ["▁সাম", -10.374073453062914],
            ["▁এশিয়ান", -10.3746585806422],
            ["▁পত্রিকায়", -10.374705562868764],
            ["▁শিক্ষিত", -10.375067409125592],
            ["▁মামলাটি", -10.376071317613572],
            ["▁অপারেটর", -10.376535119608826],
            ["▁খায়", -10.376649326373988],
            ["দেশের", -10.37702350445697],
            ["▁আতঙ্ক", -10.377900064482844],
            ["▁কমাতে", -10.3781418880696],
            ["▁রাশেদ", -10.378204255583722],
            ["▁দেখছি", -10.378786884932152],
            ["▁একান্ত", -10.37881428340673],
            ["▁ঘোষিত", -10.378821201007746],
            ["চ্ছে", -10.379495246712208],
            ["ধারা", -10.379594881629528],
            ["▁অল", -10.379646826279034],
            ["▁প্রি", -10.380200354833253],
            ["্যাল", -10.38038321768438],
            ["▁আলোকে", -10.380640077510078],
            ["▁তহবিল", -10.380821927608064],
            ["▁পুলিশকে", -10.3812175578173],
            ["▁মিশন", -10.3812323610026],
            ["ন্", -10.381332004625534],
            ["জুড়ে", -10.381334651516958],
            ["▁সোজা", -10.381879698557878],
            ["▁হেঁটে", -10.3822083511832],
            ["▁বসা", -10.382543988428852],
            ["▁নেতাকর্মী", -10.38311972294464],
            ["▁সিরাজগঞ্জ", -10.383538764156752],
            ["▁হায়দার", -10.383615795388144],
            ["সান", -10.384699385029556],
            ["▁যাঁরা", -10.385094956761373],
            ["▁এশিয়ার", -10.385143639497326],
            ["▁স্পর্শ", -10.385161979557587],
            ["▁নাম্বার", -10.38560371601077],
            ["▁জয়ী", -10.385657622079922],
            ["▁বরাত", -10.385898009446876],
            ["▁উখিয়া", -10.3859906296029],
            ["▁দুইটি", -10.386670042082576],
            ["▁ধুয়ে", -10.38689621212044],
            ["ত্র", -10.387005939063371],
            ["▁জোরে", -10.3871239874404],
            ["রার", -10.38813111453567],
            ["যোগ", -10.388295543797208],
            ["▁মেলে", -10.388351185817015],
            ["ur", -10.38874089759164],
            ["▁বিলিয়ন", -10.388773575247429],
            ["▁এমনটা", -10.388815049475523],
            ["▁নিয়োজিত", -10.389191835191674],
            ["▁ফেনী", -10.389334774256785],
            ["▁শক্তির", -10.3893513499371],
            ["▁নির্দেশে", -10.389527481559158],
            ["▁প্রাইভেট", -10.389541661027316],
            ["▁প্রকৃতির", -10.389946993226689],
            ["▁চালান", -10.39069269689004],
            ["ñ", -10.391074463375988],
            ["▁নম্বরে", -10.391512640359744],
            ["▁প্রা", -10.39211863986598],
            ["ানু", -10.39229084537688],
            ["▁এজেন্ট", -10.392321924541966],
            ["▁আগষ্ট", -10.393084109046985],
            ["▁শহিদুল", -10.393139503287737],
            ["no", -10.393151728718118],
            ["en", -10.393288991255996],
            ["▁প্রচণ্ড", -10.393792038903786],
            ["▁ঐক্যবদ্ধ", -10.39382325547305],
            ["▁কমপ্লেক্সে", -10.393833812584113],
            ["▁এতদিন", -10.394085409188335],
            ["▁কোর্স", -10.394119120893102],
            ["▁স্মার্ট", -10.39545517406964],
            ["▁প্রেক্ষিতে", -10.39561919536839],
            ["সাম", -10.395802716486386],
            ["▁দাদা", -10.395995765510358],
            ["▁ডাকাত", -10.396190173569396],
            ["▁চক্রবর্তী", -10.396356320159322],
            ["▁বিক্রির", -10.396513745082824],
            ["▁কবিতার", -10.396791644895464],
            ["▁এ্যা", -10.397241199941057],
            ["▁বক্তৃতা", -10.397395645920607],
            ["ারের", -10.397759355576538],
            ["▁খেল", -10.397820259449018],
            ["▁উদ্", -10.397923304278498],
            ["▁রু", -10.398334557330552],
            ["▁হস্তক্ষেপ", -10.398703286855849],
            ["▁সশস্ত্র", -10.399056104076836],
            ["▁রাখাইন", -10.399239355054185],
            ["▁আইনি", -10.399250065334908],
            ["▁আশরাফুল", -10.39956167100493],
            ["▁কোরিয়া", -10.399641351239104],
            ["▁বাই", -10.39965140290046],
            ["▁দফতর", -10.39991794063173],
            ["ছো", -10.40010137378059],
            ["▁রাহুল", -10.40025735631382],
            ["▁মেহেদী", -10.400600963148545],
            ["▁উৎসবের", -10.400657402258735],
            ["▁সহায়ক", -10.401002547800797],
            ["▁বাক্য", -10.401805381712055],
            ["▁লন্ডনে", -10.402016502193042],
            ["▁পেট", -10.402085299370174],
            ["▁ma", -10.40238377289726],
            ["জ্জ", -10.402441102660086],
            ["▁যুক্তরাষ্ট্রে", -10.403512502616216],
            ["▁গে", -10.403530271509142],
            ["▁অ্যাসোসিয়েশন", -10.403577590784952],
            ["▁ট্রেড", -10.403840642466452],
            ["▁আমন্ত্রণ", -10.404412786095476],
            ["▁শুনেছি", -10.404663848864724],
            ["▁ওয়েবসাইটে", -10.404948394785],
            ["▁পেল", -10.405428743821629],
            ["▁মুনাফা", -10.406327806094591],
            ["▁গ্রাহকদের", -10.406362508014658],
            ["▁রাজু", -10.406455191072595],
            ["▁অন্যের", -10.406507096149426],
            ["▁দলিল", -10.4071547452353],
            ["▁অধ্যায়", -10.407354522352511],
            ["▁দেই", -10.40735628621984],
            ["▁বাড়ী", -10.407367535859828],
            ["▁লুকিয়ে", -10.407423350174987],
            ["শ্রী", -10.407779745946984],
            ["▁লাগছে", -10.40795115693381],
            ["▁জেগে", -10.408043895352096],
            ["▁বয়সের", -10.408595230118744],
            ["▁পরিদর্শক", -10.408744920363556],
            ["▁আনসার", -10.409041425284949],
            ["▁উত্তরে", -10.40919066721747],
            ["▁অনুসন্ধান", -10.409366333817688],
            ["▁আমাদেরকে", -10.409519797840078],
            ["▁আর্জেন্টিনা", -10.409542062313118],
            ["▁by", -10.409827979245046],
            ["▁সংক্ষিপ্ত", -10.410218355791695],
            ["▁তদন্তের", -10.410322682705944],
            ["▁সন্তানদের", -10.410350893169747],
            ["▁প্রবৃদ্ধি", -10.41051297032871],
            ["▁পৌঁছ", -10.410845121836797],
            ["▁চাকরির", -10.41106409555187],
            ["▁প্রভৃতি", -10.411179229892724],
            ["▁পারিনি", -10.41122835636284],
            ["▁চাচা", -10.411326541020394],
            ["▁ভালোভাবে", -10.411828981245216],
            ["ন্দা", -10.411870383397067],
            ["▁পুরাতন", -10.412083483015268],
            ["▁আনুষ্ঠানিকভাবে", -10.412201637403143],
            ["▁শাসক", -10.412441358633902],
            ["▁পাড়ি", -10.413032648620078],
            ["দিবাগত", -10.41317349000631],
            ["▁বালু", -10.41327974810678],
            ["▁পাহাড়ের", -10.413651169444892],
            ["▁জের", -10.413670049382004],
            ["▁এসেছিল", -10.41402872068719],
            ["▁প্রশাসনিক", -10.41407443455671],
            ["▁দশম", -10.415051456211357],
            ["ব্যা", -10.415557264559332],
            ["▁ফোনের", -10.41556571452278],
            ["▁প্রতিবন্ধী", -10.415721199411102],
            ["▁কর্মকর্তার", -10.41589438085154],
            ["পদ", -10.415916157564864],
            ["দিনাজপুর", -10.416181290580496],
            ["▁পরাজয়", -10.41654863915834],
            ["▁বসিয়ে", -10.416558599741869],
            ["কারীরা", -10.416880315596355],
            ["@", -10.416903516298028],
            ["▁হাড়", -10.417009635383671],
            ["▁কবর", -10.417840508293375],
            ["▁চু", -10.417971902662527],
            ["▁আফ্রিকা", -10.418176922141033],
            ["একদিকে", -10.418302581238112],
            ["▁বাইরের", -10.418631874297985],
            ["▁গ্রহ", -10.419047291862036],
            ["di", -10.419638181872411],
            ["▁পরিচিতি", -10.419932903850276],
            ["▁সাভার", -10.420048891928037],
            ["▁আহ", -10.42030112773678],
            ["▁প্রবাহ", -10.420511336978477],
            ["▁মূর্তি", -10.42089077091062],
            ["▁রইল", -10.42161042819226],
            ["শু", -10.421610750657663],
            ["াংশ", -10.421823179453648],
            ["▁একাডেমি", -10.4226034801419],
            ["▁h", -10.422636732664506],
            ["▁হানিফ", -10.42334953305056],
            ["▁সকলকে", -10.423473688056683],
            ["সির", -10.423493038574955],
            ["▁ইঞ্জিনিয়ার", -10.423571922559608],
            ["▁সার্টিফিকেট", -10.423816195798487],
            ["▁বসু", -10.42426680451876],
            ["▁নাসিম", -10.424772031655376],
            ["শ্", -10.424968193249748],
            ["▁পর্যালোচনা", -10.425401524001268],
            ["▁জিন", -10.425993710403237],
            ["স্ক", -10.426290981040614],
            ["লাইন", -10.42684763707478],
            ["▁ফেলেছে", -10.426897379336136],
            ["ডু", -10.42725594995459],
            ["হাট", -10.427449668277257],
            ["টেন", -10.427490478653606],
            ["▁অস্থায়ী", -10.427857331126614],
            ["▁প্রতিবছর", -10.42829975019527],
            ["বের", -10.429461279078168],
            ["▁এক্সচেঞ্জ", -10.429621715907274],
            ["▁নিলাম", -10.429781854584231],
            ["ওয়ালা", -10.429960383441284],
            ["▁তথ্যপ্রযুক্তি", -10.43002729797139],
            ["াকা", -10.430062047417524],
            ["▁বুকের", -10.430066694987506],
            ["▁বাঁচা", -10.430204375187438],
            ["▁ধরার", -10.430578261019146],
            ["▁কড়া", -10.430595018695485],
            ["▁বেল", -10.4308171049888],
            ["▁একসাথে", -10.43158709267635],
            ["▁মুর", -10.431640374702267],
            ["▁দিচ্ছি", -10.432010013337612],
            ["নায়", -10.432055172035613],
            ["▁প্রজন্ম", -10.432341419019387],
            ["▁শাহীন", -10.432554226953172],
            ["▁কাঠ", -10.432578773205211],
            ["▁বুদ্ধি", -10.432792337831629],
            ["▁পালা", -10.43279809249751],
            ["▁চাঁদপুর", -10.433612761828824],
            ["পথে", -10.434219138630072],
            ["▁মহ", -10.434384777459291],
            ["▁চাঁপাইনবাবগঞ্জ", -10.434579904786451],
            ["▁ইউনাইটেড", -10.434829186627928],
            ["▁রাশি", -10.434830340146917],
            ["▁বিরত", -10.434993868878644],
            ["▁শব্দটি", -10.43636484773821],
            ["▁অনুশীলন", -10.436492484764068],
            ["য়াল", -10.436616872981958],
            ["গাড়িতে", -10.437076230159557],
            ["▁বলবে", -10.437765564361204],
            ["াদি", -10.437815506073385],
            ["▁প্রতিষ্ঠানটি", -10.438536359285491],
            ["▁মাকে", -10.438902657260018],
            ["▁ইউনিটের", -10.439040499581283],
            ["▁রাখলে", -10.439447308554625],
            ["▁তালা", -10.439493384017927],
            ["ন্য", -10.439881179382466],
            ["▁প্রিমিয়ার", -10.439887119304435],
            ["▁আজও", -10.439913440649086],
            ["▁মুন", -10.440022266591804],
            ["▁ইউরোপীয়", -10.44112457507123],
            ["▁ব্র্যান্ড", -10.44160259683408],
            ["▁যাবতীয়", -10.4420608518744],
            ["▁লজ্জা", -10.44206767227924],
            ["কিছু", -10.442329429531538],
            ["বিল", -10.44233720303227],
            ["▁মোটর", -10.442406753765557],
            ["▁ফেল", -10.442861002497454],
            ["▁পায়নি", -10.44313974242],
            ["▁আমেরিকান", -10.44329848459114],
            ["▁কর্মসূচী", -10.443863751171142],
            ["▁পুড়ে", -10.444225099148248],
            ["▁ক্ষতিকর", -10.444268919436167],
            ["▁মূল্যায়ন", -10.444648811562146],
            ["জাতীয়", -10.444709024916872],
            ["তিন", -10.444763804373077],
            ["▁প্রতিবেদকঃ", -10.444844585168596],
            ["▁বিরোধিতা", -10.445051739353833],
            ["▁ভা", -10.445072428420485],
            ["li", -10.445117559972482],
            ["একেবারেই", -10.445174440219128],
            ["▁জানাই", -10.445529128647095],
            ["▁মুছে", -10.44561890336893],
            ["▁চলার", -10.445642977755018],
            ["▁যাত্রীদের", -10.446151850949496],
            ["কলকাতায়", -10.446810592168584],
            ["কারি", -10.447208189227457],
            ["▁ভাইরাস", -10.44782698325892],
            ["▁জুয়েল", -10.44813390713139],
            ["▁সমস্যায়", -10.44819801379622],
            ["▁নাট্য", -10.448239691368736],
            ["▁বৃহত্তর", -10.448273384541338],
            ["▁পর্যটক", -10.448372187184898],
            ["▁মাসিক", -10.44857562755154],
            ["শার", -10.448852619288791],
            ["▁তাল", -10.44886830755229],
            ["লীগের", -10.448918642538535],
            ["▁রাউন্ড", -10.449150749246552],
            ["▁উই", -10.449748527380068],
            ["▁আর্", -10.449758443153025],
            ["▁সিরাজ", -10.449826487923602],
            ["▁অভ্যন্তরীণ", -10.450142238989724],
            ["▁লক্ষণ", -10.450238170810772],
            ["▁উপকার", -10.450453803962109],
            ["▁কাতার", -10.451097940678734],
            ["▁রিয়াদ", -10.451901615680042],
            ["▁সহ্য", -10.451975183391363],
            ["▁কেনা", -10.452207269111485],
            ["▁বিষয়গুলো", -10.452712017705291],
            ["চু", -10.452732678820844],
            ["▁সারাদিন", -10.45287827675924],
            ["▁বিরাজ", -10.452927148354872],
            ["▁তুরস্কের", -10.453210742007824],
            ["▁্যাবের", -10.453363087638351],
            ["▁ক্রিকেটে", -10.453552885075158],
            ["م", -10.453673107916678],
            ["▁দেরি", -10.453749275955632],
            ["▁গান্ধী", -10.454022545678235],
            ["▁পদার্থ", -10.454145516138675],
            ["▁চুলের", -10.454176087881264],
            ["▁মিডিয়ায়", -10.454356129150428],
            ["▁ডিবি", -10.455046587659291],
            ["▁pro", -10.455257970926349],
            ["▁রকমের", -10.455429635676992],
            ["▁রেডিও", -10.455782036866076],
            ["পরি", -10.45583638687304],
            ["ct", -10.455862868882534],
            ["▁এতটা", -10.456129282349735],
            ["▁নাটোর", -10.457338083414475],
            ["▁বিধি", -10.45765074508306],
            ["▁স্পেন", -10.457686112252173],
            ["▁বর্ণ", -10.457819974033663],
            ["▁অর্থে", -10.45796089625432],
            ["▁রোনালদো", -10.458170420085985],
            ["▁দো", -10.458296134938596],
            ["▁শত্রু", -10.458372894581554],
            ["▁পালনের", -10.458594025301204],
            ["▁এখান", -10.458996908414468],
            ["▁বেড়া", -10.459178724031636],
            ["▁গ্রামীণ", -10.45945501984397],
            ["▁বাস্তবতা", -10.459667540675651],
            ["ma", -10.459778669839658],
            ["▁সেক্ষেত্রে", -10.459970884554108],
            ["্যু", -10.460070802182331],
            ["▁কয়লা", -10.4602216056764],
            ["ge", -10.460524289514154],
            ["▁সুরক্ষা", -10.46053860734532],
            ["▁শফিকুল", -10.46070222009808],
            ["▁দেবার", -10.460873022013027],
            ["at", -10.461139767077446],
            ["▁দুর্দান্ত", -10.461197390620343],
            ["▁সেন্টারে", -10.461320158672205],
            ["▁ওপেন", -10.461755675284104],
            ["▁দেশি", -10.462142594119838],
            ["▁ধারাবাহিক", -10.462341242000186],
            ["▁তৎপরতা", -10.462341558623605],
            ["▁সংবাদমাধ্যম", -10.46277277768916],
            ["▁ফ্যাশন", -10.462924190716429],
            ["▁আলু", -10.463228132623568],
            ["▁পরিবারে", -10.463397361679789],
            ["পুরুষ", -10.463456929374932],
            ["▁ব্যাটারি", -10.464006680200606],
            ["▁বাড়ে", -10.464344747404889],
            ["▁গণহত্যা", -10.46484431792656],
            ["▁বলব", -10.46543683264176],
            ["▁সমন্বয়ে", -10.465836084085074],
            ["পাল", -10.466591296372895],
            ["▁চেতনা", -10.46704332619388],
            ["▁পরীক্ষার্থী", -10.467333098364367],
            ["▁প্রকাশনা", -10.467345602582627],
            ["▁মেলার", -10.46794644590804],
            ["▁মন্ডল", -10.467968508566951],
            ["মুখ", -10.467979112656916],
            ["▁বানানো", -10.468103972287436],
            ["টের", -10.468291076978067],
            ["▁থাক", -10.468454818219184],
            ["প্রিয়", -10.469208475505626],
            ["▁নাগাদ", -10.469368614026218],
            ["▁সিরাজুল", -10.470789394625358],
            ["ারী", -10.47103369918303],
            ["ti", -10.471123040509353],
            ["▁ইংল্যান্ডের", -10.471166728421228],
            ["▁কার্যকরী", -10.471179019262916],
            ["▁ঘনিষ্ঠ", -10.4711997300396],
            ["▁অভিনন্দন", -10.471419050768104],
            ["ul", -10.471468056739168],
            ["▁গরুর", -10.471899366543877],
            ["▁অজানা", -10.47195298640184],
            ["▁শিবির", -10.472568670241404],
            ["▁আইয়ুব", -10.472632479247196],
            ["▁লেগেছে", -10.47274209552353],
            ["▁ফ্রান্সের", -10.473031687438525],
            ["▁তুই", -10.473192044450077],
            ["জল", -10.473208655750824],
            ["▁টুকরো", -10.47327171956627],
            ["বেলা", -10.473835271765124],
            ["▁ফরিদ", -10.473983521573905],
            ["▁প্রজেক্ট", -10.474116494301803],
            ["▁চিহ্ন", -10.47435851917122],
            ["▁কফি", -10.474432153102484],
            ["▁সাক্ষী", -10.47445841297196],
            ["▁মাদ্রাসার", -10.474707959553944],
            ["▁সম্পৃক্ত", -10.474757197216894],
            ["ra", -10.474801554388886],
            ["▁এখানকার", -10.474804005694558],
            ["▁রীতিমত", -10.47498458815849],
            ["▁চল", -10.474989440911642],
            ["▁ইংলিশ", -10.475391629119605],
            ["▁উদ্যোক্তা", -10.47548849258708],
            ["আলা", -10.4756100795658],
            ["▁তাহের", -10.475796601947662],
            ["▁অপরাধের", -10.47620257916878],
            ["▁দেবী", -10.476735436496948],
            ["▁জেরে", -10.476872633722143],
            ["▁নিল", -10.4768796323858],
            ["▁শিল্পের", -10.477114523599171],
            ["▁ঈমান", -10.477295191828183],
            ["▁শৃঙ্খলা", -10.47751358476183],
            ["ca", -10.478067844076454],
            ["▁ডেপুটি", -10.478078121568856],
            ["▁আহতদের", -10.478276944524696],
            ["▁সংসদীয়", -10.47834304341523],
            ["▁অবিলম্বে", -10.478558749688071],
            ["▁সম্মাননা", -10.478664113243733],
            ["est", -10.478776438482727],
            ["বাগ", -10.479578744507188],
            ["▁গোপালগঞ্জ", -10.4797970844716],
            ["▁হাবিবুর", -10.480582690380263],
            ["▁বার্সেলোনা", -10.480843974832348],
            ["▁খে", -10.481347344211144],
            ["আল", -10.48151842607998],
            ["▁চাপে", -10.482232872525003],
            ["গাঁও", -10.482315705594116],
            ["▁ঐতিহ্যবাহী", -10.482552370173956],
            ["▁পাহাড়ি", -10.48307700371698],
            ["▁আমিনুল", -10.48310222719186],
            ["চিত্র", -10.48328203368482],
            ["▁সুন্দরী", -10.483595081212671],
            ["▁বসানো", -10.483868780958623],
            ["▁কাট", -10.483967346810092],
            ["▁হট", -10.484028727800071],
            ["▁নাগরিকদের", -10.484043204067133],
            ["▁আকাশে", -10.484062707427972],
            ["ষ্টি", -10.48442695750183],
            ["মতে", -10.484638943170356],
            ["co", -10.4852062490605],
            ["মূল্য", -10.485396926540028],
            ["▁শিশুকে", -10.485758383591524],
            ["▁জাহিদ", -10.485781567443569],
            ["▁ব্যবসার", -10.486487739164506],
            ["▁গোষ্ঠী", -10.486816142446168],
            ["▁মোদী", -10.48683550848686],
            ["▁প্রেমিক", -10.487439873178245],
            ["▁স্টেট", -10.487590271089392],
            ["▁রাখি", -10.487828765364466],
            ["▁হুমায়ুন", -10.488149897583524],
            ["▁জনগণকে", -10.488546343439692],
            ["▁দেখ", -10.488869991758625],
            ["▁লাভের", -10.488885987742256],
            ["▁গৃহ", -10.488989463167847],
            ["▁মনোনয়নপত্র", -10.48928511461351],
            ["▁ইন্ডিয়া", -10.489423748751612],
            ["▁গার্ড", -10.489956712762254],
            ["▁পুষ্টি", -10.490642348577795],
            ["▁করিতে", -10.490711630310653],
            ["ll", -10.491263041902634],
            ["▁টাইম", -10.491724775146304],
            ["▁অন্তর", -10.491817964333086],
            ["▁বিপর্যয়", -10.49192066390541],
            ["▁পেলাম", -10.492062304929853],
            ["▁স্বতন্ত্র", -10.492438698110334],
            ["রিন", -10.492514498064022],
            ["ইরানের", -10.492599871314958],
            ["▁নারীকে", -10.49284189796231],
            ["▁হাউস", -10.49296856666271],
            ["▁জগতে", -10.493051965012024],
            ["▁মালেক", -10.49338062956159],
            ["▁শিক্ষামন্ত্রী", -10.493854169176984],
            ["ভাব", -10.49413843705881],
            ["িনা", -10.494201227644552],
            ["▁টার্গেট", -10.495249645169638],
            ["▁বাণী", -10.495283450101056],
            ["▁পূর্ণাঙ্গ", -10.495468236475835],
            ["▁মুহিত", -10.495478390217109],
            ["▁মালয়েশিয়া", -10.496111084601058],
            ["কিন্তু", -10.496206951554464],
            ["ধর্ম", -10.496385109684187],
            ["▁শিখ", -10.496853298273027],
            ["▁পিতার", -10.49716404297284],
            ["▁স্বেচ্ছাসেবক", -10.497168156772975],
            ["▁ওখানে", -10.497449540023846],
            ["▁গাড়ী", -10.497502924814818],
            ["▁পেলেন", -10.497552616224844],
            ["▁খাগড়াছড়ি", -10.497681272536711],
            ["▁মোতায়েন", -10.497931239453427],
            ["ক্সি", -10.498097897887911],
            ["▁বাজে", -10.498780606113929],
            ["▁রানী", -10.4989528053317],
            ["▁ব্রা", -10.49932223555869],
            ["ধারী", -10.499662808445825],
            ["▁বলবেন", -10.500291818635576],
            ["লাই", -10.50034218432873],
            ["▁কালের", -10.50056673637174],
            ["সকলেই", -10.50070726424689],
            ["▁তাড়াতাড়ি", -10.500752932522524],
            ["▁প্রকৌশল", -10.500991926977148],
            ["▁রফতানি", -10.501100504793438],
            ["▁যুবকের", -10.501153149380702],
            ["▁গল্পের", -10.501460573470688],
            ["▁পলাতক", -10.501557116043418],
            ["▁পাগল", -10.501622286920536],
            ["▁সিলেটে", -10.501871413674063],
            ["▁অর্জনের", -10.502302169056293],
            ["▁কর্পোরেশনের", -10.502684879617805],
            ["▁গণতন্ত্রের", -10.502829424458364],
            ["▁বিনিয়োগকারীদের", -10.50289736714574],
            ["▁ইরাক", -10.50338046772698],
            ["▁নু", -10.503452586085627],
            ["▁প্রবন্ধ", -10.503557776291157],
            ["▁আদায়ের", -10.503830043821],
            ["▁চত্বরে", -10.503934375657266],
            ["▁no", -10.504033478545823],
            ["▁নো", -10.504093671658463],
            ["▁লিগে", -10.50470766336834],
            ["il", -10.505111682900305],
            ["▁বিসিএস", -10.505215002577255],
            ["▁বৈশাখ", -10.505522804519089],
            ["▁রবিউল", -10.505567877198748],
            ["▁চেয়েও", -10.505629689443468],
            ["নীয়", -10.50601989817418],
            ["▁হাদিস", -10.5060433104803],
            ["▁বালিকা", -10.50627729605298],
            ["মির", -10.506789278539872],
            ["▁চুপ", -10.506818068674445],
            ["▁কর্মসংস্থান", -10.5068783585823],
            ["জোটের", -10.506961835829443],
            ["lo", -10.506985327885095],
            ["▁সুজন", -10.507066356549348],
            ["▁গোসল", -10.50742960574456],
            ["▁স্বপ্নের", -10.508311736216816],
            ["▁পরিমান", -10.50846812317355],
            ["▁ব্যুরো", -10.50873618981056],
            ["▁মনোযোগ", -10.508769077861418],
            ["▁তারাই", -10.508930087658593],
            ["▁গেট", -10.509330344535694],
            ["▁pa", -10.509395995074817],
            ["▁জটিলতা", -10.509895780536302],
            ["ক্ত", -10.51078861244908],
            ["▁ছাত্রদের", -10.511273346736616],
            ["▁সম্মানিত", -10.511408442867062],
            ["▁একুশে", -10.51222185786329],
            ["fi", -10.512546410822049],
            ["▁জালাল", -10.512786042622924],
            ["▁ওয়াশিংটন", -10.513063468067156],
            ["▁বাচ্চু", -10.513133617975226],
            ["▁আমীর", -10.513371039655697],
            ["জ্ঞ", -10.514106476814536],
            ["লিং", -10.514247129991414],
            ["▁হারাম", -10.514258764775509],
            ["▁উচ্চারণ", -10.514784184287976],
            ["▁স্টার", -10.514950872151385],
            ["▁প্রয়াত", -10.514974530106189],
            ["▁চিন", -10.515038591256],
            ["▁ক্ষেত্র", -10.515444395416264],
            ["▁স্বাক্ষরিত", -10.515447184540744],
            ["▁চীনা", -10.51550831241892],
            ["▁বাস্তবায়নে", -10.516126812142067],
            ["▁সহায়তায়", -10.51702390307239],
            ["শিক্ষা", -10.51749189415411],
            ["▁ঘোষনা", -10.51751226202748],
            ["▁ওয়ার্ডে", -10.517631467719944],
            ["ke", -10.518298134094453],
            ["▁মঞ্চ", -10.518422127790604],
            ["ভাগ", -10.518494115361916],
            ["▁নিচ্ছেন", -10.51886778524207],
            ["▁ধাপে", -10.518916597771176],
            ["▁জামালপুর", -10.519249411248335],
            ["▁মনি", -10.51935849634005],
            ["▁সিদ্দিক", -10.52036843759885],
            ["ন্ডা", -10.520532305923805],
            ["▁ভু", -10.520762170929652],
            ["▁কালি", -10.521295249229423],
            ["▁মহিলার", -10.521626681237732],
            ["▁লঙ্ঘন", -10.521670086433348],
            ["াবাদ", -10.521783142531994],
            ["▁তত্ত্ব", -10.522086527318775],
            ["▁অজ্ঞাত", -10.52216364343251],
            ["▁হাইকোর্টের", -10.522380107281965],
[...]
